{
  "version": "1.0",
  "truncation": null,
  "padding": null,
  "added_tokens": [],
  "normalizer": null,
  "pre_tokenizer": {
    "type": "ByteLevel",
    "add_prefix_space": true,
    "trim_offsets": true,
    "use_regex": true
  },
  "post_processor": {
    "type": "ByteLevel",
    "add_prefix_space": true,
    "trim_offsets": true,
    "use_regex": true
  },
  "decoder": {
    "type": "ByteLevel",
    "add_prefix_space": true,
    "trim_offsets": true,
    "use_regex": true
  },
  "model": {
    "type": "BPE",
    "dropout": null,
    "unk_token": null,
    "continuing_subword_prefix": null,
    "end_of_word_suffix": null,
    "fuse_unk": false,
    "byte_fallback": false,
    "ignore_merges": false,
    "vocab": {
      "!": 0,
      "\"": 1,
      "#": 2,
      "$": 3,
      "%": 4,
      "&": 5,
      "'": 6,
      "(": 7,
      ")": 8,
      "*": 9,
      "+": 10,
      ",": 11,
      "-": 12,
      ".": 13,
      "/": 14,
      "0": 15,
      "1": 16,
      "2": 17,
      "3": 18,
      "4": 19,
      "5": 20,
      "6": 21,
      "7": 22,
      "8": 23,
      "9": 24,
      ":": 25,
      ";": 26,
      "<": 27,
      "=": 28,
      ">": 29,
      "?": 30,
      "@": 31,
      "A": 32,
      "B": 33,
      "C": 34,
      "D": 35,
      "E": 36,
      "F": 37,
      "G": 38,
      "H": 39,
      "I": 40,
      "J": 41,
      "K": 42,
      "L": 43,
      "M": 44,
      "N": 45,
      "O": 46,
      "P": 47,
      "Q": 48,
      "R": 49,
      "S": 50,
      "T": 51,
      "U": 52,
      "V": 53,
      "W": 54,
      "X": 55,
      "Y": 56,
      "Z": 57,
      "[": 58,
      "\\": 59,
      "]": 60,
      "^": 61,
      "_": 62,
      "`": 63,
      "a": 64,
      "b": 65,
      "c": 66,
      "d": 67,
      "e": 68,
      "f": 69,
      "g": 70,
      "h": 71,
      "i": 72,
      "j": 73,
      "k": 74,
      "l": 75,
      "m": 76,
      "n": 77,
      "o": 78,
      "p": 79,
      "q": 80,
      "r": 81,
      "s": 82,
      "t": 83,
      "u": 84,
      "v": 85,
      "w": 86,
      "x": 87,
      "y": 88,
      "z": 89,
      "{": 90,
      "|": 91,
      "}": 92,
      "~": 93,
      "¡": 94,
      "¢": 95,
      "£": 96,
      "¤": 97,
      "¥": 98,
      "¦": 99,
      "§": 100,
      "¨": 101,
      "©": 102,
      "ª": 103,
      "«": 104,
      "¬": 105,
      "®": 106,
      "¯": 107,
      "°": 108,
      "±": 109,
      "²": 110,
      "³": 111,
      "´": 112,
      "µ": 113,
      "¶": 114,
      "·": 115,
      "¸": 116,
      "¹": 117,
      "º": 118,
      "»": 119,
      "¼": 120,
      "½": 121,
      "¾": 122,
      "¿": 123,
      "À": 124,
      "Á": 125,
      "Â": 126,
      "Ã": 127,
      "Ä": 128,
      "Å": 129,
      "Æ": 130,
      "Ç": 131,
      "È": 132,
      "É": 133,
      "Ê": 134,
      "Ë": 135,
      "Ì": 136,
      "Í": 137,
      "Î": 138,
      "Ï": 139,
      "Ð": 140,
      "Ñ": 141,
      "Ò": 142,
      "Ó": 143,
      "Ô": 144,
      "Õ": 145,
      "Ö": 146,
      "×": 147,
      "Ø": 148,
      "Ù": 149,
      "Ú": 150,
      "Û": 151,
      "Ü": 152,
      "Ý": 153,
      "Þ": 154,
      "ß": 155,
      "à": 156,
      "á": 157,
      "â": 158,
      "ã": 159,
      "ä": 160,
      "å": 161,
      "æ": 162,
      "ç": 163,
      "è": 164,
      "é": 165,
      "ê": 166,
      "ë": 167,
      "ì": 168,
      "í": 169,
      "î": 170,
      "ï": 171,
      "ð": 172,
      "ñ": 173,
      "ò": 174,
      "ó": 175,
      "ô": 176,
      "õ": 177,
      "ö": 178,
      "÷": 179,
      "ø": 180,
      "ù": 181,
      "ú": 182,
      "û": 183,
      "ü": 184,
      "ý": 185,
      "þ": 186,
      "ÿ": 187,
      "Ā": 188,
      "ā": 189,
      "Ă": 190,
      "ă": 191,
      "Ą": 192,
      "ą": 193,
      "Ć": 194,
      "ć": 195,
      "Ĉ": 196,
      "ĉ": 197,
      "Ċ": 198,
      "ċ": 199,
      "Č": 200,
      "č": 201,
      "Ď": 202,
      "ď": 203,
      "Đ": 204,
      "đ": 205,
      "Ē": 206,
      "ē": 207,
      "Ĕ": 208,
      "ĕ": 209,
      "Ė": 210,
      "ė": 211,
      "Ę": 212,
      "ę": 213,
      "Ě": 214,
      "ě": 215,
      "Ĝ": 216,
      "ĝ": 217,
      "Ğ": 218,
      "ğ": 219,
      "Ġ": 220,
      "ġ": 221,
      "Ģ": 222,
      "ģ": 223,
      "Ĥ": 224,
      "ĥ": 225,
      "Ħ": 226,
      "ħ": 227,
      "Ĩ": 228,
      "ĩ": 229,
      "Ī": 230,
      "ī": 231,
      "Ĭ": 232,
      "ĭ": 233,
      "Į": 234,
      "į": 235,
      "İ": 236,
      "ı": 237,
      "Ĳ": 238,
      "ĳ": 239,
      "Ĵ": 240,
      "ĵ": 241,
      "Ķ": 242,
      "ķ": 243,
      "ĸ": 244,
      "Ĺ": 245,
      "ĺ": 246,
      "Ļ": 247,
      "ļ": 248,
      "Ľ": 249,
      "ľ": 250,
      "Ŀ": 251,
      "ŀ": 252,
      "Ł": 253,
      "ł": 254,
      "Ń": 255,
      "ìĿ": 256,
      "ìĿ¼": 257,
      "ìĿ¼ì": 258,
      "§Į": 259,
      "ë§Į": 260,
      "ĠìĿ¼ì": 261,
      "ĭŃ": 262,
      "ĠìĿ¼ìĭŃ": 263,
      "²ľ": 264,
      "°±": 265,
      "ë°±": 266,
      "ĠìĿ¼ìĭŃì": 267,
      "ì²ľ": 268,
      "ë§Įì": 269,
      "ĺ¤": 270,
      "ì²ľì": 271,
      "Ĥ¬": 272,
      "ľ¡": 273,
      "ĠìĿ¼ìĭŃìĺ¤": 274,
      "Ĥ¼": 275,
      "¹ł": 276,
      "íĮ": 277,
      "íĮĶ": 278,
      "µ¬": 279,
      "êµ¬": 280,
      "ìĿ´": 281,
      "ĠìĿ¼ìĭŃìĤ¬": 282,
      "ĠìĿ¼ìĭŃìĺ¤ë§Į": 283,
      "ĠìĿ¼ìĭŃìľ¡": 284,
      "ĠìĿ¼ìĭŃìĺ¤ë§Įì": 285,
      "ĠìĿ¼ìĭŃìĤ¼": 286,
      "ĠìĿ¼ìĭŃìĤ¬ë§Įì": 287,
      "êµ¬ë°±": 288,
      "ľ¡ë°±": 289,
      "ìĿ´ë°±": 290,
      "íĮĶë°±": 291,
      "¹łë°±": 292,
      "Ĥ¬ë°±": 293,
      "Ĥ¼ë°±": 294,
      "ĺ¤ë°±": 295,
      "ìĿ¼ë°±": 296,
      "ĠìĿ¼ìĭŃìĤ¬ë§Į": 297,
      "ĠìĿ¼ìĭŃìľ¡ë§Įì": 298,
      "ìĿ¼ì²ľ": 299,
      "ĠìĿ¼ìĭŃìĤ¼ë§Įì": 300,
      "ì²ľêµ¬ë°±": 301,
      "ì²ľìľ¡ë°±": 302,
      "ì²ľíĮĶë°±": 303,
      "ì²ľì¹łë°±": 304,
      "ì²ľìĿ´ë°±": 305,
      "ì²ľìĤ¬ë°±": 306,
      "ĠìĿ¼ìĭŃìľ¡ë§Į": 307,
      "ì²ľìĤ¼ë°±": 308,
      "ì²ľìĺ¤ë°±": 309,
      "ì²ľìĿ¼ë°±": 310,
      "ĠìĿ¼ìĭŃìĺ¤ë§ĮíĮĶ": 311,
      "ë§ĮíĮĶ": 312,
      "ìĿ¼ì²ľì": 313,
      "ĠìĿ¼ìĭŃìĺ¤ë§Įêµ¬": 314,
      "ĠìĿ¼ìĭŃë§Įì": 315,
      "ĠìĿ¼ìĭŃìĿ´": 316,
      "ĠìĿ¼ìĭŃìĿ¼": 317,
      "ĠìĿ¼ìĭŃìĺ¤ë§Įìĺ¤": 318,
      "ĠìĿ¼ìĭŃìĺ¤ë§Įì¹ł": 319,
      "ĠìĿ¼ìĭŃìĤ¬ë§Įêµ¬": 320,
      "ĠìĿ¼ìĭŃìĺ¤ë§Įìľ¡": 321,
      "ë§Įêµ¬": 322,
      "ĠìĿ¼ìĭŃìĤ¬ë§Įìľ¡": 323,
      "ĠìĿ¼ìĭŃìĺ¤ë§ĮìĿ´": 324,
      "ĠìĿ¼ìĭŃì¹ł": 325,
      "ĠìĿ¼ìĭŃìĤ¬ë§ĮíĮĶ": 326,
      "ĠìĿ¼ìĭŃìĺ¤ë§ĮìĤ¬": 327,
      "ĠìĿ¼ìĭŃìĺ¤ë§ĮìĤ¼": 328,
      "ĠìĿ¼ìĭŃìĤ¬ë§Įì¹ł": 329,
      "ĠìĿ¼ìĭŃìĿ¼ë§Įì": 330,
      "ĠìĿ¼ìĭŃìĤ¬ë§ĮìĤ¼": 331,
      "ĠìĿ¼ìĭŃìĤ¼ë§Įì¹ł": 332,
      "ĠìĿ¼ìĭŃì¹łë§Į": 333,
      "ĠìĿ¼ìĭŃìĤ¼ë§Įìĺ¤": 334,
      "ĠìĿ¼ìĭŃìĤ¬ë§ĮìĤ¬": 335,
      "ĠìĿ¼ìĭŃìĤ¼ë§ĮíĮĶ": 336,
      "ĠìĿ¼ìĭŃìľ¡ë§Įìĺ¤": 337,
      "ĠìĿ¼ìĭŃë§Įì¹ł": 338,
      "ĠìĿ¼ìĭŃìĺ¤ë§ĮìĿ¼ì²ľ": 339,
      "ĠìĿ¼ìĭŃìĤ¼ë§Įìľ¡": 340,
      "ĠìĿ¼ìĭŃìĤ¬ë§ĮìĿ´": 341,
      "ĠìĿ¼ìĭŃìľ¡ë§ĮìĿ´": 342,
      "ĠìĿ¼ìĭŃìĿ´ë§Įì": 343,
      "ĠìĿ¼ìĭŃìĺ¤ë§ĮìĿ¼ì²ľì": 344,
      "ĠìĿ¼ìĭŃìľ¡ë§Įìľ¡": 345,
      "ĠìĿ¼ìĭŃìľ¡ë§ĮìĤ¼": 346,
      "ĠìĿ¼ìĭŃìĤ¼ë§ĮìĤ¬": 347,
      "ĠìĿ¼ìĭŃìĤ¬ë§Įìĺ¤": 348,
      "ĠìĿ¼ìĭŃìľ¡ë§ĮíĮĶ": 349,
      "ĠìĿ¼ìĭŃìĤ¼ë§Įêµ¬": 350,
      "ĠìĿ¼ìĭŃìľ¡ë§ĮìĤ¬": 351,
      "ĠìĿ¼ìĭŃìľ¡ë§Įì¹ł": 352,
      "ĠìĿ¼ìĭŃìľ¡ë§Įêµ¬": 353,
      "ĠìĿ¼ìĭŃìĤ¼ë§Į": 354,
      "ĠìĿ¼ìĭŃë§ĮíĮĶ": 355,
      "ĠìĿ¼ìĭŃìĿ¼ë§Įì¹ł": 356,
      "ĠìĿ¼ìĭŃìľ¡ë§ĮìĿ¼ì²ľ": 357,
      "ĠìĿ¼ìĭŃìľ¡ë§ĮìĿ¼ì²ľì": 358,
      "ĠìĿ¼ìĭŃìĿ´ë§ĮíĮĶ": 359,
      "ĠìĿ¼ìĭŃë§Įìľ¡": 360,
      "ĠìĿ¼ìĭŃìĤ¼ë§ĮìĤ¼": 361,
      "ĠìĿ¼ìĭŃìĿ¼ë§ĮíĮĶ": 362,
      "ĠìĿ¼ìĭŃìĿ¼ë§Įìľ¡": 363,
      "ĠìĿ¼ìĭŃìĤ¬ë§ĮìĿ¼ì²ľ": 364,
      "ĠìĿ¼ìĭŃìĤ¬ë§ĮìĿ¼ì²ľì": 365,
      "ĠìĿ¼ìĭŃìĿ´ë§Į": 366,
      "ĠìĿ¼ìĭŃìĺ¤ë§ĮíĮĶì²ľêµ¬ë°±": 367,
      "ĠìĿ¼ìĭŃì¹łë§ĮìĿ¼ì²ľì": 368,
      "ĠìĿ¼ìĭŃë§Įìĺ¤": 369,
      "ĠìĿ¼ìĭŃì¹łë§Įì": 370,
      "ĠìĿ¼ìĭŃìĿ´ë§Įêµ¬": 371,
      "ĠìĿ¼ìĭŃìĺ¤ë§Įêµ¬ì²ľ": 372,
      "ĠìĿ¼ìĭŃìĺ¤ë§ĮíĮĶì²ľíĮĶë°±": 373,
      "ĠìĿ¼ìĭŃìĺ¤ë§Įêµ¬ì²ľìĿ¼ë°±": 374,
      "ĠìĿ¼ìĭŃìĺ¤ë§ĮíĮĶì²ľì¹łë°±": 375,
      "ĠìĿ¼ìĭŃìĺ¤ë§ĮíĮĶì²ľìľ¡ë°±": 376,
      "ĠìĿ¼ìĭŃì¹łë§ĮìĿ¼ì²ľ": 377,
      "ĠìĿ¼ìĭŃìĺ¤ë§ĮìĤ¬ë°±": 378,
      "ĠìĿ¼ìĭŃìĺ¤ë§ĮíĮĶë°±": 379,
      "ĠìĿ¼ìĭŃìĿ´ë§Įì¹ł": 380,
      "ĠìĿ¼ìĭŃìĺ¤ë§Įêµ¬ì²ľìĿ´ë°±": 381,
      "ĠìĿ¼ìĭŃìĤ¼ë§ĮìĿ´": 382,
      "ĠìĿ¼ìĭŃìĺ¤ë§ĮíĮĶì²ľìĤ¬ë°±": 383,
      "ĠìĿ¼ìĭŃìĺ¤ë§ĮíĮĶì²ľìĤ¼ë°±": 384,
      "ĠìĿ¼ìĭŃìĺ¤ë§Įì¹łë°±": 385,
      "ĠìĿ¼ìĭŃì¹łë§ĮìĿ´": 386,
      "ĠìĿ¼ìĭŃìĺ¤ë§Įìľ¡ë°±": 387,
      "ĠìĿ¼ìĭŃìĺ¤ë§ĮíĮĶì²ľìĿ´ë°±": 388,
      "ĠìĿ¼ìĭŃìĺ¤ë§ĮíĮĶì²ľ": 389,
      "ĠìĿ¼ìĭŃìĺ¤ë§Įêµ¬ë°±": 390,
      "ĠìĿ¼ìĭŃìĺ¤ë§ĮìĿ¼ì²ľìĿ¼ë°±": 391,
      "ĠìĿ¼ìĭŃìĿ¼ë§Įêµ¬": 392,
      "ĠìĿ¼ìĭŃìĺ¤ë§ĮíĮĶì²ľìĺ¤ë°±": 393,
      "ĠìĿ¼ìĭŃìĺ¤ë§ĮìĿ¼ì²ľìĿ´ë°±": 394,
      "ĠìĿ¼ìĭŃìĿ´ë§ĮìĤ¬": 395,
      "ĠìĿ¼ìĭŃìĺ¤ë§Įì¹łì²ľêµ¬ë°±": 396,
      "ĠìĿ¼ìĭŃìĺ¤ë§ĮíĮĶì²ľìĿ¼ë°±": 397,
      "ĠìĿ¼ìĭŃìĤ¬ë§Įêµ¬ì²ľêµ¬ë°±": 398,
      "ĠìĿ¼ìĭŃìĺ¤ë§Įêµ¬ì²ľìĤ¬ë°±": 399,
      "ĠìĿ¼ìĭŃìĺ¤ë§Įêµ¬ì²ľìĺ¤ë°±": 400,
      "ĠìĿ¼ìĭŃìĺ¤ë§Įìĺ¤ì²ľìĿ¼ë°±": 401,
      "ĠìĿ¼ìĭŃìĺ¤ë§ĮìĿ¼ë°±": 402,
      "ĠìĿ¼ìĭŃìĺ¤ë§Įìĺ¤ë°±": 403,
      "ĠìĿ¼ìĭŃìĺ¤ë§Įêµ¬ì²ľì¹łë°±": 404,
      "ĠìĿ¼ìĭŃìĺ¤ë§Įêµ¬ì²ľìĤ¼ë°±": 405,
      "ĠìĿ¼ìĭŃìĺ¤ë§ĮìĿ´ë°±": 406,
      "ĠìĿ¼ìĭŃë§ĮìĤ¬": 407,
      "ĠìĿ¼ìĭŃìĺ¤ë§ĮìĿ¼ì²ľìľ¡ë°±": 408,
      "ĠìĿ¼ìĭŃìĺ¤ë§Įìĺ¤ì²ľìľ¡ë°±": 409,
      "ĠìĿ¼ìĭŃìĺ¤ë§Įêµ¬ì²ľêµ¬ë°±": 410,
      "ĠìĿ¼ìĭŃìĺ¤ë§Įìĺ¤ì²ľìĺ¤ë°±": 411,
      "ĠìĿ¼ìĭŃìĺ¤ë§ĮìĤ¬ì²ľíĮĶë°±": 412,
      "ĠìĿ¼ìĭŃìĺ¤ë§Įêµ¬ì²ľìľ¡ë°±": 413,
      "ĠìĿ¼ìĭŃìĺ¤ë§Įì¹łì²ľìĿ´ë°±": 414,
      "ĠìĿ¼ìĭŃìĺ¤ë§Įìĺ¤ì²ľìĤ¬ë°±": 415,
      "ĠìĿ¼ìĭŃìĺ¤ë§ĮìĿ¼ì²ľì¹łë°±": 416,
      "ĠìĿ¼ìĭŃë§Įêµ¬": 417,
      "ĠìĿ¼ìĭŃìĺ¤ë§ĮìĤ¼ë°±": 418,
      "ĠìĿ¼ìĭŃìĺ¤ë§ĮìĿ¼ì²ľìĤ¬ë°±": 419,
      "ĠìĿ¼ìĭŃìĺ¤ë§Įì¹łì²ľìľ¡ë°±": 420,
      "ĠìĿ¼ìĭŃìĤ¬ë§Įìľ¡ì²ľì¹łë°±": 421,
      "ĠìĿ¼ìĭŃìĺ¤ë§ĮìĤ¼ì²ľìľ¡ë°±": 422,
      "ĠìĿ¼ìĭŃìĺ¤ë§Įìĺ¤ì²ľìĿ´ë°±": 423,
      "ĠìĿ¼ìĭŃìĺ¤ë§ĮìĿ¼ì²ľìĺ¤ë°±": 424,
      "ĠìĿ¼ìĭŃìĺ¤ë§ĮìĿ¼ì²ľìĤ¼ë°±": 425,
      "ĠìĿ¼ìĭŃìĤ¬ë§Įìľ¡ì²ľìľ¡ë°±": 426,
      "ĠìĿ¼ìĭŃìĺ¤ë§ĮìĤ¬ì²ľêµ¬ë°±": 427,
      "ĠìĿ¼ìĭŃìĺ¤ë§Įì¹łì²ľíĮĶë°±": 428,
      "ĠìĿ¼ìĭŃìĤ¬ë§Įêµ¬ì²ľì¹łë°±": 429,
      "ĠìĿ¼ìĭŃìĺ¤ë§Įì¹łì²ľìĺ¤ë°±": 430,
      "ĠìĿ¼ìĭŃìĺ¤ë§Įì¹łì²ľ": 431,
      "ĠìĿ¼ìĭŃìĺ¤ë§Įìĺ¤ì²ľ": 432,
      "ĠìĿ¼ìĭŃìĺ¤ë§Įìĺ¤ì²ľìĤ¼ë°±": 433,
      "ĠìĿ¼ìĭŃìĤ¬ë§Įêµ¬ì²ľìĤ¼ë°±": 434,
      "ĠìĿ¼ìĭŃìĺ¤ë§ĮìĿ´ì²ľì¹łë°±": 435,
      "ĠìĿ¼ìĭŃìĺ¤ë§Įìĺ¤ì²ľêµ¬ë°±": 436,
      "ĠìĿ¼ìĭŃìĺ¤ë§ĮìĿ¼ì²ľíĮĶë°±": 437,
      "ĠìĿ¼ìĭŃìĺ¤ë§Įìľ¡ì²ľìĿ´ë°±": 438,
      "ĠìĿ¼ìĭŃìĺ¤ë§Įêµ¬ì²ľíĮĶë°±": 439,
      "ĠìĿ¼ìĭŃìĺ¤ë§ĮìĤ¼ì²ľìĤ¬ë°±": 440,
      "ĠìĿ¼ìĭŃìĺ¤ë§Įìľ¡ì²ľêµ¬ë°±": 441,
      "ĠìĿ¼ìĭŃìĺ¤ë§Įìľ¡ì²ľìľ¡ë°±": 442,
      "ĠìĿ¼ìĭŃìĤ¬ë§Įêµ¬ì²ľ": 443,
      "ĠìĿ¼ìĭŃìĺ¤ë§Įì¹łì²ľìĤ¬ë°±": 444,
      "ĠìĿ¼ìĭŃìĺ¤ë§Įìľ¡ì²ľìĤ¬ë°±": 445,
      "ĠìĿ¼ìĭŃìĤ¬ë§Įêµ¬ì²ľìľ¡ë°±": 446,
      "ĠìĿ¼ìĭŃìĺ¤ë§ĮìĿ´ì²ľìĿ´ë°±": 447,
      "ĠìĿ¼ìĭŃìĤ¬ë§Įêµ¬ì²ľìĿ´ë°±": 448,
      "ĠìĿ¼ìĭŃìĺ¤ë§ĮìĿ´ì²ľìĤ¬ë°±": 449,
      "ĠìĿ¼ìĭŃìĺ¤ë§Įìľ¡ì²ľì¹łë°±": 450,
      "ĠìĿ¼ìĭŃìĺ¤ë§Įìľ¡ì²ľíĮĶë°±": 451,
      "ĠìĿ¼ìĭŃìĺ¤ë§Įìĺ¤ì²ľíĮĶë°±": 452,
      "ĠìĿ¼ìĭŃìĤ¬ë§Įìľ¡ì²ľìĿ´ë°±": 453,
      "ĠìĿ¼ìĭŃìľ¡ë§ĮìĿ¼ë°±": 454,
      "ĠìĿ¼ìĭŃìĺ¤ë§ĮìĿ´ì²ľ": 455,
      "ĠìĿ¼ìĭŃìĤ¬ë§ĮíĮĶì²ľ": 456,
      "ĠìĿ¼ìĭŃìĤ¬ë§ĮíĮĶì²ľêµ¬ë°±": 457,
      "ĠìĿ¼ìĭŃìĤ¬ë§Įêµ¬ì²ľíĮĶë°±": 458,
      "ĠìĿ¼ìĭŃìĤ¬ë§ĮíĮĶì²ľíĮĶë°±": 459,
      "ĠìĿ¼ìĭŃìĺ¤ë§Įì¹łì²ľìĿ¼ë°±": 460,
      "ĠìĿ¼ìĭŃìĺ¤ë§ĮìĤ¬ì²ľì¹łë°±": 461,
      "ĠìĿ¼ìĭŃìĺ¤ë§Įì¹łì²ľì¹łë°±": 462,
      "ĠìĿ¼ìĭŃìĿ¼ë§Įìĺ¤": 463,
      "ĠìĿ¼ìĭŃìĤ¬ë§Įìľ¡ì²ľìĺ¤ë°±": 464,
      "ĠìĿ¼ìĭŃìľ¡ë§ĮìĿ´ë°±": 465,
      "ĠìĿ¼ìĭŃìĤ¬ë§Įìľ¡ì²ľìĤ¼ë°±": 466,
      "ĠìĿ¼ìĭŃìĺ¤ë§Įì¹łì²ľìĤ¼ë°±": 467,
      "ĠìĿ¼ìĭŃìĺ¤ë§Įìľ¡ì²ľ": 468,
      "ĠìĿ¼ìĭŃìĺ¤ë§ĮìĤ¼ì²ľìĺ¤ë°±": 469,
      "ĠìĿ¼ìĭŃìĺ¤ë§Įìľ¡ì²ľìĺ¤ë°±": 470,
      "ĠìĿ¼ìĭŃìĤ¼ë§Įìĺ¤ì²ľ": 471,
      "ĠìĿ¼ìĭŃìĤ¬ë§Įìľ¡ì²ľìĿ¼ë°±": 472,
      "ĠìĿ¼ìĭŃìĺ¤ë§ĮìĤ¬ì²ľ": 473,
      "ĠìĿ¼ìĭŃìĤ¬ë§Įêµ¬ì²ľìĤ¬ë°±": 474,
      "ĠìĿ¼ìĭŃìĺ¤ë§Įìĺ¤ì²ľì¹łë°±": 475,
      "ĠìĿ¼ìĭŃìĤ¼ë§ĮíĮĶì²ľ": 476,
      "ĠìĿ¼ìĭŃìĤ¬ë§Įêµ¬ì²ľìĿ¼ë°±": 477,
      "ĠìĿ¼ìĭŃìĺ¤ë§Įìľ¡ì²ľìĤ¼ë°±": 478,
      "ĠìĿ¼ìĭŃìĤ¬ë§Įìľ¡ì²ľíĮĶë°±": 479,
      "ĠìĿ¼ìĭŃìĤ¼ë§ĮíĮĶì²ľìĿ´ë°±": 480,
      "ĠìĿ¼ìĭŃìĤ¬ë§Įì¹łì²ľ": 481,
      "ĠìĿ¼ìĭŃìĤ¬ë§ĮíĮĶì²ľìĺ¤ë°±": 482,
      "ĠìĿ¼ìĭŃìĤ¬ë§ĮíĮĶì²ľìĤ¬ë°±": 483,
      "ĠìĿ¼ìĭŃìĤ¬ë§ĮìĤ¼ì²ľìĤ¼ë°±": 484,
      "ĠìĿ¼ìĭŃìĤ¬ë§Įì¹łì²ľìľ¡ë°±": 485,
      "ĠìĿ¼ìĭŃìĤ¬ë§Įì¹łì²ľìĤ¬ë°±": 486,
      "ĠìĿ¼ìĭŃìĤ¬ë§Įêµ¬ì²ľìĺ¤ë°±": 487,
      "ĠìĿ¼ìĭŃìĺ¤ë§ĮìĤ¼ì²ľíĮĶë°±": 488,
      "ĠìĿ¼ìĭŃìĺ¤ë§ĮìĤ¬ì²ľìĿ¼ë°±": 489,
      "ĠìĿ¼ìĭŃìĺ¤ë§ĮìĿ´ì²ľêµ¬ë°±": 490,
      "ĠìĿ¼ìĭŃìĺ¤ë§ĮìĿ´ì²ľìľ¡ë°±": 491,
      "ĠìĿ¼ìĭŃìĤ¬ë§ĮíĮĶì²ľì¹łë°±": 492,
      "ĠìĿ¼ìĭŃìĺ¤ë§ĮìĤ¼ì²ľìĤ¼ë°±": 493,
      "ĠìĿ¼ìĭŃìĺ¤ë§ĮìĿ´ì²ľìĺ¤ë°±": 494,
      "ĠìĿ¼ìĭŃìĤ¬ë§Įìľ¡ì²ľìĤ¬ë°±": 495,
      "ĠìĿ¼ìĭŃìĤ¬ë§Įì¹łì²ľìĺ¤ë°±": 496,
      "ĠìĿ¼ìĭŃìĺ¤ë§Įìľ¡ì²ľìĿ¼ë°±": 497,
      "ĠìĿ¼ìĭŃìĤ¬ë§ĮíĮĶì²ľìľ¡ë°±": 498,
      "ĠìĿ¼ìĭŃìĤ¬ë§ĮìĤ¬ì²ľ": 499,
      "ĠìĿ¼ìĭŃìĤ¬ë§Įì¹łì²ľì¹łë°±": 500,
      "ĠìĿ¼ìĭŃìĤ¬ë§ĮìĤ¼ì²ľêµ¬ë°±": 501,
      "ĠìĿ¼ìĭŃìĤ¬ë§Įì¹łì²ľìĤ¼ë°±": 502,
      "ĠìĿ¼ìĭŃìĤ¼ë§Įìĺ¤ì²ľìĿ¼ë°±": 503,
      "ĠìĿ¼ìĭŃìĤ¬ë§ĮìĤ¼ì²ľ": 504,
      "ĠìĿ¼ìĭŃìĤ¬ë§ĮìĤ¼ì²ľìĤ¬ë°±": 505,
      "ĠìĿ¼ìĭŃìĤ¼ë§Įì¹łì²ľìĺ¤ë°±": 506,
      "ĠìĿ¼ìĭŃìĤ¬ë§ĮìĿ´ì²ľêµ¬ë°±": 507,
      "ĠìĿ¼ìĭŃìĤ¼ë§Įì¹łì²ľì¹łë°±": 508,
      "ĠìĿ¼ìĭŃìĺ¤ë§ĮìĤ¼ì²ľìĿ´ë°±": 509,
      "ĠìĿ¼ìĭŃìľ¡ë§ĮìĿ´ì²ľìĤ¬ë°±": 510,
      "ĠìĿ¼ìĭŃìĺ¤ë§ĮìĤ¼ì²ľêµ¬ë°±": 511,
      "ĠìĿ¼ìĭŃìĤ¬ë§ĮìĤ¼ì²ľìĿ´ë°±": 512,
      "ĠìĿ¼ìĭŃìľ¡ë§Įìĺ¤ì²ľìľ¡ë°±": 513,
      "ĠìĿ¼ìĭŃìĺ¤ë§ĮìĤ¼ì²ľì¹łë°±": 514,
      "ĠìĿ¼ìĭŃìĺ¤ë§ĮìĤ¬ì²ľìĤ¼ë°±": 515,
      "ĠìĿ¼ìĭŃìĺ¤ë§ĮìĤ¬ì²ľìľ¡ë°±": 516,
      "ĠìĿ¼ìĭŃìĤ¬ë§Įìľ¡ì²ľêµ¬ë°±": 517,
      "ĠìĿ¼ìĭŃìľ¡ë§ĮìĿ¼ì²ľêµ¬ë°±": 518,
      "ĠìĿ¼ìĭŃìĺ¤ë§ĮìĿ´ì²ľìĿ¼ë°±": 519,
      "ĠìĿ¼ìĭŃìĤ¬ë§ĮìĤ¼ì²ľìĿ¼ë°±": 520,
      "ĠìĿ¼ìĭŃìĤ¬ë§ĮíĮĶì²ľìĤ¼ë°±": 521,
      "ĠìĿ¼ìĭŃìľ¡ë§ĮìĿ¼ì²ľìľ¡ë°±": 522,
      "ĠìĿ¼ìĭŃìĺ¤ë§ĮìĿ´ì²ľìĤ¼ë°±": 523,
      "ĠìĿ¼ìĭŃìĤ¼ë§Įì¹łì²ľíĮĶë°±": 524,
      "ĠìĿ¼ìĭŃìĤ¬ë§Įì¹łì²ľìĿ¼ë°±": 525,
      "ĠìĿ¼ìĭŃìĤ¬ë§ĮìĤ¬ì²ľìĤ¼ë°±": 526,
      "ĠìĿ¼ìĭŃìĤ¼ë§Įìĺ¤ì²ľìľ¡ë°±": 527,
      "ĠìĿ¼ìĭŃìĿ´ë§Įìĺ¤": 528,
      "ĠìĿ¼ìĭŃìĤ¬ë§ĮìĿ´ì²ľìĺ¤ë°±": 529,
      "ĠìĿ¼ìĭŃìĺ¤ë§ĮìĿ´ì²ľíĮĶë°±": 530,
      "ĠìĿ¼ìĭŃìľ¡ë§ĮìĤ¬ë°±": 531,
      "ĠìĿ¼ìĭŃìľ¡ë§Įìĺ¤ì²ľêµ¬ë°±": 532,
      "ĠìĿ¼ìĭŃìĺ¤ë§ĮìĿ¼ì²ľêµ¬ë°±": 533,
      "ĠìĿ¼ìĭŃìĤ¼ë§Įêµ¬ì²ľìĿ´ë°±": 534,
      "ĠìĿ¼ìĭŃìĺ¤ë§ĮìĤ¬ì²ľìĿ´ë°±": 535,
      "ĠìĿ¼ìĭŃìľ¡ë§Įì¹łë°±": 536,
      "ĠìĿ¼ìĭŃìĺ¤ë§ĮìĤ¼ì²ľ": 537,
      "ĠìĿ¼ìĭŃìĤ¬ë§ĮíĮĶì²ľìĿ´ë°±": 538,
      "ĠìĿ¼ìĭŃìĤ¬ë§ĮíĮĶì²ľìĿ¼ë°±": 539,
      "ĠìĿ¼ìĭŃìĤ¬ë§Įì¹łì²ľìĿ´ë°±": 540,
      "ĠìĿ¼ìĭŃìĤ¼ë§Įì¹łì²ľìĤ¼ë°±": 541,
      "ĠìĿ¼ìĭŃìĤ¬ë§ĮìĤ¬ì²ľìĿ´ë°±": 542,
      "ĠìĿ¼ìĭŃìĤ¬ë§Įì¹łì²ľêµ¬ë°±": 543,
      "ĠìĿ¼ìĭŃìĤ¬ë§Įìľ¡ì²ľ": 544,
      "ĠìĿ¼ìĭŃìĤ¬ë§ĮìĤ¼ì²ľíĮĶë°±": 545,
      "ĠìĿ¼ìĭŃìľ¡ë§ĮìĿ´ì²ľ": 546,
      "ĠìĿ¼ìĭŃë§Įì¹łì²ľìĤ¼ë°±": 547,
      "ĠìĿ¼ìĭŃìľ¡ë§ĮìĿ¼ì²ľìĿ´ë°±": 548,
      "ĠìĿ¼ìĭŃìĤ¼ë§Įì¹łì²ľ": 549,
      "ĠìĿ¼ìĭŃìľ¡ë§ĮìĿ¼ì²ľìĺ¤ë°±": 550,
      "ĠìĿ¼ìĭŃìĤ¼ë§ĮìĤ¬ì²ľìľ¡ë°±": 551,
      "ĠìĿ¼ìĭŃìĤ¼ë§ĮìĿ¼ì²ľ": 552,
      "ĠìĿ¼ìĭŃìľ¡ë§ĮìĿ¼ì²ľìĤ¬ë°±": 553,
      "ĠìĿ¼ìĭŃìĤ¼ë§Įì¹łì²ľìľ¡ë°±": 554,
      "ĠìĿ¼ìĭŃìĤ¬ë§ĮìĿ´ì²ľì¹łë°±": 555,
      "ĠìĿ¼ìĭŃìľ¡ë§ĮìĤ¼ë°±": 556,
      "ĠìĿ¼ìĭŃìĤ¬ë§Įì¹łì²ľíĮĶë°±": 557,
      "ĠìĿ¼ìĭŃìĤ¼ë§Įìĺ¤ì²ľìĺ¤ë°±": 558,
      "ĠìĿ¼ìĭŃë§Įì¹łì²ľìĤ¬ë°±": 559,
      "ĠìĿ¼ìĭŃìĤ¼ë§Įìĺ¤ì²ľìĤ¼ë°±": 560,
      "ĠìĿ¼ìĭŃìĤ¼ë§ĮíĮĶì²ľìĤ¼ë°±": 561,
      "ĠìĿ¼ìĭŃìĤ¼ë§ĮíĮĶì²ľìĿ¼ë°±": 562,
      "ĠìĿ¼ìĭŃìĤ¼ë§Įì¹łì²ľêµ¬ë°±": 563,
      "ĠìĿ¼ìĭŃìľ¡ë§Įìĺ¤ì²ľíĮĶë°±": 564,
      "ĠìĿ¼ìĭŃìľ¡ë§ĮìĿ´ì²ľìĿ´ë°±": 565,
      "ĠìĿ¼ìĭŃë§Įì¹łì²ľìĺ¤ë°±": 566,
      "ĠìĿ¼ìĭŃìĿ´ë§ĮìĿ´": 567,
      "ĠìĿ¼ìĭŃìľ¡ë§ĮìĤ¼ì²ľíĮĶë°±": 568,
      "ĠìĿ¼ìĭŃìľ¡ë§Įìľ¡ì²ľìĤ¬ë°±": 569,
      "ĠìĿ¼ìĭŃìĤ¼ë§Įêµ¬ì²ľìĿ¼ë°±": 570,
      "ĠìĿ¼ìĭŃìĤ¼ë§Įìľ¡ì²ľìĤ¬ë°±": 571,
      "ĠìĿ¼ìĭŃë§Įì¹łì²ľìĿ¼ë°±": 572,
      "ĠìĿ¼ìĭŃìĤ¬ë§ĮìĤ¬ì²ľìĿ¼ë°±": 573,
      "ĠìĿ¼ìĭŃìĤ¼ë§Įìľ¡ì²ľìĤ¼ë°±": 574,
      "ĠìĿ¼ìĭŃìľ¡ë§Įìĺ¤ì²ľìĤ¬ë°±": 575,
      "ĠìĿ¼ìĭŃë§Įì¹łì²ľìĿ´ë°±": 576,
      "ĠìĿ¼ìĭŃìĤ¼ë§Įìľ¡ì²ľìĺ¤ë°±": 577,
      "ĠìĿ¼ìĭŃìĤ¼ë§Įìľ¡ì²ľìľ¡ë°±": 578,
      "ĠìĿ¼ìĭŃìľ¡ë§ĮíĮĶì²ľìĺ¤ë°±": 579,
      "ĠìĿ¼ìĭŃìľ¡ë§ĮìĿ´ì²ľêµ¬ë°±": 580,
      "ĠìĿ¼ìĭŃìľ¡ë§ĮìĿ¼ì²ľíĮĶë°±": 581,
      "ĠìĿ¼ìĭŃìľ¡ë§ĮíĮĶë°±": 582,
      "ĠìĿ¼ìĭŃìĤ¼ë§ĮíĮĶì²ľìĤ¬ë°±": 583,
      "ĠìĿ¼ìĭŃìĤ¼ë§ĮìĤ¬ì²ľêµ¬ë°±": 584,
      "ĠìĿ¼ìĭŃìľ¡ë§Įìĺ¤ì²ľ": 585,
      "ĠìĿ¼ìĭŃìĤ¼ë§Įêµ¬ì²ľ": 586,
      "ĠìĿ¼ìĭŃìĤ¼ë§Įì¹łì²ľìĤ¬ë°±": 587,
      "ĠìĿ¼ìĭŃìĤ¼ë§Įìľ¡ì²ľ": 588,
      "ĠìĿ¼ìĭŃìĤ¼ë§ĮìĤ¬ì²ľìĤ¬ë°±": 589,
      "ĠìĿ¼ìĭŃìĺ¤ë§ĮìĤ¬ì²ľìĺ¤ë°±": 590,
      "ĠìĿ¼ìĭŃë§Įì¹łì²ľ": 591,
      "ĠìĿ¼ìĭŃìĤ¬ë§ĮìĤ¬ì²ľìĤ¬ë°±": 592,
      "ĠìĿ¼ìĭŃìĤ¬ë§ĮìĤ¬ì²ľíĮĶë°±": 593,
      "ĠìĿ¼ìĭŃìĤ¼ë§ĮìĿ¼ì²ľì": 594,
      "ĠìĿ¼ìĭŃìľ¡ë§ĮìĿ¼ì²ľìĤ¼ë°±": 595,
      "ĠìĿ¼ìĭŃìĤ¼ë§Įìľ¡ì²ľêµ¬ë°±": 596,
      "ĠìĿ¼ìĭŃë§Įì¹łì²ľì¹łë°±": 597,
      "ĠìĿ¼ìĭŃìĤ¼ë§Įìĺ¤ì²ľìĤ¬ë°±": 598,
      "ĠìĿ¼ìĭŃìĤ¬ë§ĮìĤ¼ì²ľìľ¡ë°±": 599,
      "ĠìĿ¼ìĭŃìĤ¼ë§Įì¹łì²ľìĿ¼ë°±": 600,
      "ĠìĿ¼ìĭŃìĺ¤ë§ĮìĤ¼ì²ľìĿ¼ë°±": 601,
      "ĠìĿ¼ìĭŃìľ¡ë§Įìĺ¤ì²ľìĺ¤ë°±": 602,
      "ĠìĿ¼ìĭŃìĤ¼ë§Įìĺ¤ì²ľìĿ´ë°±": 603,
      "ĠìĿ¼ìĭŃìľ¡ë§ĮìĤ¼ì²ľ": 604,
      "ĠìĿ¼ìĭŃìľ¡ë§ĮìĤ¼ì²ľìĿ¼ë°±": 605,
      "ĠìĿ¼ìĭŃìĿ´ë§ĮìĤ¼": 606,
      "ĠìĿ¼ìĭŃìĤ¬ë§Įìĺ¤ì²ľìľ¡ë°±": 607,
      "ĠìĿ¼ìĭŃìľ¡ë§Įìľ¡ë°±": 608,
      "ĠìĿ¼ìĭŃìľ¡ë§ĮìĤ¼ì²ľìľ¡ë°±": 609,
      "ĠìĿ¼ìĭŃìĤ¬ë§ĮìĤ¬ì²ľìĺ¤ë°±": 610,
      "ĠìĿ¼ìĭŃìľ¡ë§ĮìĿ¼ì²ľì¹łë°±": 611,
      "ĠìĿ¼ìĭŃìĤ¼ë§Įìĺ¤ì²ľì¹łë°±": 612,
      "ĠìĿ¼ìĭŃìĤ¬ë§Įìĺ¤ì²ľ": 613,
      "ĠìĿ¼ìĭŃë§Įì¹łì²ľíĮĶë°±": 614,
      "ĠìĿ¼ìĭŃìĤ¼ë§ĮìĤ¬ì²ľíĮĶë°±": 615,
      "ĠìĿ¼ìĭŃìĤ¬ë§ĮìĿ´ì²ľìľ¡ë°±": 616,
      "ĠìĿ¼ìĭŃìľ¡ë§Įìĺ¤ì²ľìĤ¼ë°±": 617,
      "ĠìĿ¼ìĭŃìľ¡ë§ĮíĮĶì²ľìľ¡ë°±": 618,
      "ĠìĿ¼ìĭŃìĤ¼ë§Įìĺ¤ì²ľêµ¬ë°±": 619,
      "ĠìĿ¼ìĭŃìľ¡ë§ĮíĮĶì²ľêµ¬ë°±": 620,
      "ĠìĿ¼ìĭŃìľ¡ë§ĮìĿ´ì²ľìĿ¼ë°±": 621,
      "ĠìĿ¼ìĭŃìĤ¬ë§ĮìĿ¼ì²ľìĿ´ë°±": 622,
      "ĠìĿ¼ìĭŃìľ¡ë§Įêµ¬ë°±": 623,
      "ĠìĿ¼ìĭŃìĺ¤ë§ĮìĤ¬ì²ľìĤ¬ë°±": 624,
      "ĠìĿ¼ìĭŃìľ¡ë§ĮìĤ¼ì²ľìĿ´ë°±": 625,
      "ĠìĿ¼ìĭŃìĤ¼ë§ĮíĮĶì²ľì¹łë°±": 626,
      "ĠìĿ¼ìĭŃë§Įì¹łì²ľìľ¡ë°±": 627,
      "ĠìĿ¼ìĭŃìĤ¼ë§ĮìĤ¬ì²ľì¹łë°±": 628,
      "ĠìĿ¼ìĭŃìĤ¬ë§Įìĺ¤ì²ľêµ¬ë°±": 629,
      "ĠìĿ¼ìĭŃë§Įìľ¡ì²ľêµ¬ë°±": 630,
      "ĠìĿ¼ìĭŃìľ¡ë§ĮíĮĶì²ľì¹łë°±": 631,
      "ĠìĿ¼ìĭŃìľ¡ë§ĮíĮĶì²ľ": 632,
      "ĠìĿ¼ìĭŃìĤ¬ë§ĮìĤ¬ì²ľêµ¬ë°±": 633,
      "ĠìĿ¼ìĭŃìĤ¼ë§Įìľ¡ì²ľìĿ´ë°±": 634,
      "ĠìĿ¼ìĭŃìĤ¬ë§ĮìĿ¼ì²ľêµ¬ë°±": 635,
      "ĠìĿ¼ìĭŃìĤ¬ë§Įìĺ¤ì²ľíĮĶë°±": 636,
      "ĠìĿ¼ìĭŃìľ¡ë§Įìľ¡ì²ľ": 637,
      "ĠìĿ¼ìĭŃìĤ¼ë§Įêµ¬ì²ľìĤ¼ë°±": 638,
      "ĠìĿ¼ìĭŃìľ¡ë§Įì¹łì²ľ": 639,
      "ĠìĿ¼ìĭŃìĤ¬ë§Įìĺ¤ì²ľìĺ¤ë°±": 640,
      "ĠìĿ¼ìĭŃìľ¡ë§Įìľ¡ì²ľì¹łë°±": 641,
      "ĠìĿ¼ìĭŃìľ¡ë§Įìĺ¤ì²ľìĿ´ë°±": 642,
      "ĠìĿ¼ìĭŃìĤ¬ë§Įìĺ¤ì²ľì¹łë°±": 643,
      "ĠìĿ¼ìĭŃìľ¡ë§ĮìĤ¬ì²ľíĮĶë°±": 644,
      "ĠìĿ¼ìĭŃìĤ¬ë§ĮìĿ¼ì²ľìľ¡ë°±": 645,
      "ĠìĿ¼ìĭŃìľ¡ë§ĮíĮĶì²ľìĤ¼ë°±": 646,
      "ĠìĿ¼ìĭŃìľ¡ë§Įìĺ¤ì²ľì¹łë°±": 647,
      "ĠìĿ¼ìĭŃìľ¡ë§Įì¹łì²ľì¹łë°±": 648,
      "ĠìĿ¼ìĭŃìľ¡ë§Įìľ¡ì²ľìĺ¤ë°±": 649,
      "ĠìĿ¼ìĭŃìĤ¬ë§ĮìĿ´ì²ľìĤ¼ë°±": 650,
      "ĠìĿ¼ìĭŃìĤ¼ë§Įìľ¡ì²ľì¹łë°±": 651,
      "ĠìĿ¼ìĭŃìĤ¼ë§ĮìĤ¬ì²ľìĺ¤ë°±": 652,
      "ĠìĿ¼ìĭŃìĤ¬ë§Įìĺ¤ì²ľìĤ¼ë°±": 653,
      "ĠìĿ¼ìĭŃìľ¡ë§Įêµ¬ì²ľ": 654,
      "ĠìĿ¼ìĭŃìľ¡ë§ĮìĿ´ì²ľì¹łë°±": 655,
      "ĠìĿ¼ìĭŃìĤ¬ë§ĮìĿ¼ì²ľì¹łë°±": 656,
      "ĠìĿ¼ìĭŃìľ¡ë§ĮìĿ¼ì²ľìĿ¼ë°±": 657,
      "ĠìĿ¼ìĭŃìľ¡ë§Įêµ¬ì²ľêµ¬ë°±": 658,
      "ĠìĿ¼ìĭŃìĤ¼ë§ĮíĮĶì²ľíĮĶë°±": 659,
      "ĠìĿ¼ìĭŃìľ¡ë§Įìľ¡ì²ľìĿ´ë°±": 660,
      "ĠìĿ¼ìĭŃìľ¡ë§Įìľ¡ì²ľìĤ¼ë°±": 661,
      "ĠìĿ¼ìĭŃìľ¡ë§ĮìĤ¼ì²ľì¹łë°±": 662,
      "ĠìĿ¼ìĭŃìľ¡ë§ĮìĿ´ì²ľìľ¡ë°±": 663,
      "ĠìĿ¼ìĭŃë§ĮíĮĶì²ľìľ¡ë°±": 664,
      "ĠìĿ¼ìĭŃìĤ¼ë§Įì¹łì²ľìĿ´ë°±": 665,
      "ĠìĿ¼ìĭŃìĤ¼ë§Įìľ¡ì²ľìĿ¼ë°±": 666,
      "ĠìĿ¼ìĭŃìľ¡ë§Įìľ¡ì²ľìľ¡ë°±": 667,
      "ĠìĿ¼ìĭŃìľ¡ë§Įìĺ¤ë°±": 668,
      "ĠìĿ¼ìĭŃìľ¡ë§ĮìĤ¼ì²ľìĤ¼ë°±": 669,
      "ĠìĿ¼ìĭŃìľ¡ë§Įêµ¬ì²ľíĮĶë°±": 670,
      "ĠìĿ¼ìĭŃìĤ¬ë§ĮìĤ¼ì²ľìĺ¤ë°±": 671,
      "ĠìĿ¼ìĭŃìĤ¬ë§ĮìĿ´ì²ľìĤ¬ë°±": 672,
      "ĠìĿ¼ìĭŃìľ¡ë§ĮìĤ¬ì²ľ": 673,
      "ĠìĿ¼ìĭŃìĿ´ë§ĮíĮĶì²ľíĮĶë°±": 674,
      "ĠìĿ¼ìĭŃìľ¡ë§ĮìĤ¬ì²ľìĤ¬ë°±": 675,
      "ĠìĿ¼ìĭŃìĤ¬ë§ĮìĿ¼ì²ľíĮĶë°±": 676,
      "ĠìĿ¼ìĭŃìľ¡ë§Įìľ¡ì²ľêµ¬ë°±": 677,
      "ĠìĿ¼ìĭŃìľ¡ë§Įìľ¡ì²ľíĮĶë°±": 678,
      "ĠìĿ¼ìĭŃìĤ¼ë§Įìĺ¤ì²ľíĮĶë°±": 679,
      "ĠìĿ¼ìĭŃìľ¡ë§ĮíĮĶì²ľíĮĶë°±": 680,
      "ĠìĿ¼ìĭŃìĤ¬ë§ĮìĿ´ì²ľìĿ´ë°±": 681,
      "ĠìĿ¼ìĭŃìĤ¼ë§ĮìĤ¬ì²ľìĿ´ë°±": 682,
      "ĠìĿ¼ìĭŃìľ¡ë§ĮìĿ´ì²ľíĮĶë°±": 683,
      "ĠìĿ¼ìĭŃìĤ¬ë§ĮìĿ´ì²ľìĿ¼ë°±": 684,
      "ĠìĿ¼ìĭŃë§ĮíĮĶì²ľìĤ¬ë°±": 685,
      "ĠìĿ¼ìĭŃìĤ¼ë§ĮìĤ¼ì²ľíĮĶë°±": 686,
      "ĠìĿ¼ìĭŃì¹łë§Įìĺ¤ë°±": 687,
      "ĠìĿ¼ìĭŃìĤ¼ë§ĮíĮĶì²ľêµ¬ë°±": 688,
      "ĠìĿ¼ìĭŃìĤ¬ë§Įìĺ¤ì²ľìĿ´ë°±": 689,
      "ĠìĿ¼ìĭŃìĿ¼ë§Įì¹łì²ľì¹łë°±": 690,
      "ĠìĿ¼ìĭŃìĤ¼ë§Įêµ¬ì²ľìĺ¤ë°±": 691,
      "ĠìĿ¼ìĭŃìľ¡ë§Įìľ¡ì²ľìĿ¼ë°±": 692,
      "ĠìĿ¼ìĭŃìĤ¼ë§Įêµ¬ì²ľìĤ¬ë°±": 693,
      "ĠìĿ¼ìĭŃìĿ¼ë§Į": 694,
      "ĠìĿ¼ìĭŃë§ĮìĤ¼": 695,
      "ĠìĿ¼ìĭŃìľ¡ë§ĮíĮĶì²ľìĿ´ë°±": 696,
      "ĠìĿ¼ìĭŃìĤ¬ë§ĮìĤ¬ì²ľìľ¡ë°±": 697,
      "ĠìĿ¼ìĭŃìľ¡ë§ĮìĤ¬ì²ľêµ¬ë°±": 698,
      "ĠìĿ¼ìĭŃë§Įìľ¡ì²ľìľ¡ë°±": 699,
      "ĠìĿ¼ìĭŃìľ¡ë§ĮìĤ¬ì²ľìĤ¼ë°±": 700,
      "ĠìĿ¼ìĭŃìĤ¬ë§ĮìĿ´ì²ľíĮĶë°±": 701,
      "ĠìĿ¼ìĭŃì¹łë§ĮìĿ¼ì²ľìĤ¼ë°±": 702,
      "ĠìĿ¼ìĭŃìĤ¬ë§ĮìĤ¼ì²ľì¹łë°±": 703,
      "ĠìĿ¼ìĭŃìľ¡ë§Įì¹łì²ľìĿ´ë°±": 704,
      "ĠìĿ¼ìĭŃìĤ¼ë§ĮíĮĶì²ľìľ¡ë°±": 705,
      "ĠìĿ¼ìĭŃìľ¡ë§Įì¹łì²ľìĺ¤ë°±": 706,
      "ĠìĿ¼ìĭŃìĤ¬ë§Įìĺ¤ì²ľìĤ¬ë°±": 707,
      "ĠìĿ¼ìĭŃìľ¡ë§ĮìĿ´ì²ľìĤ¼ë°±": 708,
      "ĠìĿ¼ìĭŃìľ¡ë§ĮíĮĶì²ľìĤ¬ë°±": 709,
      "ĠìĿ¼ìĭŃì¹łë§ĮìĿ¼ì²ľìĤ¬ë°±": 710,
      "ĠìĿ¼ìĭŃìĤ¬ë§ĮìĿ¼ì²ľìĺ¤ë°±": 711,
      "ĠìĿ¼ìĭŃìĤ¼ë§ĮìĤ¬ì²ľìĤ¼ë°±": 712,
      "ĠìĿ¼ìĭŃë§Įì¹łì²ľêµ¬ë°±": 713,
      "ĠìĿ¼ìĭŃìľ¡ë§ĮìĤ¬ì²ľìĿ¼ë°±": 714,
      "ĠìĿ¼ìĭŃìĤ¬ë§Įêµ¬ë°±": 715,
      "ĠìĿ¼ìĭŃìĤ¼ë§Įêµ¬ì²ľì¹łë°±": 716,
      "ĠìĿ¼ìĭŃìľ¡ë§Įìĺ¤ì²ľìĿ¼ë°±": 717,
      "ĠìĿ¼ìĭŃë§ĮíĮĶì²ľìĺ¤ë°±": 718,
      "ĠìĿ¼ìĭŃìľ¡ë§Įêµ¬ì²ľìĿ´ë°±": 719,
      "ĠìĿ¼ìĭŃìĤ¬ë§ĮìĤ¬ì²ľì¹łë°±": 720,
      "ĠìĿ¼ìĭŃìĤ¬ë§Įìĺ¤ì²ľìĿ¼ë°±": 721,
      "ĠìĿ¼ìĭŃìľ¡ë§ĮìĤ¼ì²ľêµ¬ë°±": 722,
      "ĠìĿ¼ìĭŃìĿ¼ë§Įì¹łì²ľíĮĶë°±": 723,
      "ĠìĿ¼ìĭŃìľ¡ë§ĮìĤ¬ì²ľìĿ´ë°±": 724,
      "ĠìĿ¼ìĭŃìľ¡ë§ĮìĤ¼ì²ľìĺ¤ë°±": 725,
      "ĠìĿ¼ìĭŃìľ¡ë§Įì¹łì²ľíĮĶë°±": 726,
      "ĠìĿ¼ìĭŃìľ¡ë§Įì¹łì²ľìĤ¼ë°±": 727,
      "ĠìĿ¼ìĭŃìĤ¬ë§ĮìĿ¼ì²ľìĤ¼ë°±": 728,
      "ĠìĿ¼ìĭŃìľ¡ë§Įì¹łì²ľêµ¬ë°±": 729,
      "ĠìĿ¼ìĭŃìĤ¬ë§ĮìĿ´ì²ľ": 730,
      "ĠìĿ¼ìĭŃìĿ´ë§ĮíĮĶì²ľìľ¡ë°±": 731,
      "ĠìĿ¼ìĭŃë§ĮíĮĶì²ľìĤ¼ë°±": 732,
      "ĠìĿ¼ìĭŃì¹łë§ĮìĿ¼ì²ľìĺ¤ë°±": 733,
      "ĠìĿ¼ìĭŃìľ¡ë§ĮìĤ¼ì²ľìĤ¬ë°±": 734,
      "ĠìĿ¼ìĭŃìľ¡ë§ĮìĤ¬ì²ľìľ¡ë°±": 735,
      "ĠìĿ¼ìĭŃìľ¡ë§Įì¹łì²ľìĿ¼ë°±": 736,
      "ĠìĿ¼ìĭŃìľ¡ë§ĮìĤ¬ì²ľì¹łë°±": 737,
      "ĠìĿ¼ìĭŃìľ¡ë§Įêµ¬ì²ľìľ¡ë°±": 738,
      "ĠìĿ¼ìĭŃìĤ¼ë§Įìľ¡ì²ľíĮĶë°±": 739,
      "ĠìĿ¼ìĭŃìĤ¼ë§ĮíĮĶì²ľìĺ¤ë°±": 740,
      "ĠìĿ¼ìĭŃìĿ´ë§ĮíĮĶì²ľêµ¬ë°±": 741,
      "ĠìĿ¼ìĭŃìľ¡ë§ĮìĤ¬ì²ľìĺ¤ë°±": 742,
      "ĠìĿ¼ìĭŃìĿ¼ë§Įì¹łì²ľìľ¡ë°±": 743,
      "ĠìĿ¼ìĭŃì¹łë§ĮìĤ¬ë°±": 744,
      "ĠìĿ¼ìĭŃë§Įìľ¡ì²ľíĮĶë°±": 745,
      "ĠìĿ¼ìĭŃë§ĮíĮĶì²ľíĮĶë°±": 746,
      "ĠìĿ¼ìĭŃìľ¡ë§Įêµ¬ì²ľìĤ¬ë°±": 747,
      "ĠìĿ¼ìĭŃìĤ¼ë§ĮìĤ¬ì²ľ": 748,
      "ĠìĿ¼ìĭŃìĤ¼ë§ĮìĤ¼ì²ľì¹łë°±": 749,
      "ĠìĿ¼ìĭŃìĤ¼ë§Įêµ¬ì²ľìľ¡ë°±": 750,
      "ĠìĿ¼ìĭŃìĿ´ë§ĮìĿ¼ì²ľ": 751,
      "ĠìĿ¼ìĭŃìľ¡ë§Įêµ¬ì²ľì¹łë°±": 752,
      "ĠìĿ¼ìĭŃìľ¡ë§Įì¹łì²ľìĤ¬ë°±": 753,
      "ĠìĿ¼ìĭŃìĿ¼ë§ĮíĮĶì²ľìĤ¼ë°±": 754,
      "ĠìĿ¼ìĭŃì¹łë§ĮìĿ´ë°±": 755,
      "ĠìĿ¼ìĭŃë§ĮíĮĶì²ľêµ¬ë°±": 756,
      "ĠìĿ¼ìĭŃë§Įìľ¡ì²ľì¹łë°±": 757,
      "ĠìĿ¼ìĭŃë§ĮíĮĶì²ľì¹łë°±": 758,
      "ĠìĿ¼ìĭŃìĿ¼ë§Įìľ¡ì²ľêµ¬ë°±": 759,
      "ĠìĿ¼ìĭŃì¹łë§ĮìĤ¼ë°±": 760,
      "ĠìĿ¼ìĭŃìĤ¼ë§ĮìĤ¼ì²ľêµ¬ë°±": 761,
      "ĠìĿ¼ìĭŃë§Įìľ¡ì²ľìĤ¬ë°±": 762,
      "ĠìĿ¼ìĭŃìĤ¬ë§ĮìĿ¼ì²ľìĤ¬ë°±": 763,
      "ĠìĿ¼ìĭŃìĿ´ë§Įêµ¬ì²ľ": 764,
      "ĠìĿ¼ìĭŃìľ¡ë§Įêµ¬ì²ľìĿ¼ë°±": 765,
      "ĠìĿ¼ìĭŃìĤ¬ë§ĮìĿ¼ì²ľìĿ¼ë°±": 766,
      "ĠìĿ¼ìĭŃìľ¡ë§ĮìĿ´ì²ľìĺ¤ë°±": 767,
      "ĠìĿ¼ìĭŃìĤ¼ë§Įêµ¬ì²ľíĮĶë°±": 768,
      "ĠìĿ¼ìĭŃìľ¡ë§Įì¹łì²ľìľ¡ë°±": 769,
      "ĠìĿ¼ìĭŃìĿ¼ë§Įì¹łì²ľ": 770,
      "ĠìĿ¼ìĭŃìĤ¼ë§ĮìĤ¬ì²ľìĿ¼ë°±": 771,
      "ĠìĿ¼ìĭŃìľ¡ë§ĮíĮĶì²ľìĿ¼ë°±": 772,
      "ĠìĿ¼ìĭŃì¹łë§ĮìĿ¼ì²ľìĿ´ë°±": 773,
      "ĠìĿ¼ìĭŃì¹łë§ĮíĮĶë°±": 774,
      "ĠìĿ¼ìĭŃì¹łë§ĮìĿ¼ì²ľì¹łë°±": 775,
      "ĠìĿ¼ìĭŃìĤ¼ë§ĮìĤ¼ì²ľìľ¡ë°±": 776,
      "ĠìĿ¼ìĭŃìľ¡ë§Įêµ¬ì²ľìĤ¼ë°±": 777,
      "ĠìĿ¼ìĭŃìĤ¬ë§Įì¹łë°±": 778,
      "ĠìĿ¼ìĭŃë§Įìľ¡ì²ľìĺ¤ë°±": 779,
      "ĠìĿ¼ìĭŃì¹łë§ĮìĿ¼ì²ľìĿ¼ë°±": 780,
      "ĠìĿ¼ìĭŃìĿ¼ë§Įì¹łì²ľìĤ¼ë°±": 781,
      "ĠìĿ¼ìĭŃìĿ¼ë§Įì¹łì²ľìĿ´ë°±": 782,
      "ĠìĿ¼ìĭŃìĿ´ë§ĮíĮĶì²ľìĺ¤ë°±": 783,
      "ĠìĿ¼ìĭŃìľ¡ë§Įêµ¬ì²ľìĺ¤ë°±": 784,
      "ĠìĿ¼ìĭŃìĿ¼ë§ĮíĮĶì²ľìĿ´ë°±": 785,
      "ĠìĿ¼ìĭŃìĿ¼ë§Įì¹łì²ľêµ¬ë°±": 786,
      "ĠìĿ¼ìĭŃë§Įêµ¬ì²ľ": 787,
      "ĠìĿ¼ìĭŃìĤ¬ë§ĮìĿ´ë°±": 788,
      "ĠìĿ¼ìĭŃì¹łë§ĮìĿ¼ì²ľêµ¬ë°±": 789,
      "ĠìĿ¼ìĭŃì¹łë§ĮìĿ¼ì²ľíĮĶë°±": 790,
      "ĠìĿ¼ìĭŃìĿ¼ë§Įì¹łì²ľìĿ¼ë°±": 791,
      "ĠìĿ¼ìĭŃë§ĮíĮĶì²ľ": 792,
      "ĠìĿ¼ìĭŃì¹łë§ĮìĿ´ì²ľìĿ´ë°±": 793,
      "ĠìĿ¼ìĭŃë§ĮíĮĶì²ľìĿ´ë°±": 794,
      "ĠìĿ¼ìĭŃìĤ¬ë§ĮíĮĶë°±": 795,
      "ĠìĿ¼ìĭŃìĿ´ë§ĮíĮĶì²ľì¹łë°±": 796,
      "ĠìĿ¼ìĭŃìĤ¬ë§ĮìĤ¼ë°±": 797,
      "ĠìĿ¼ìĭŃì¹łë§Įêµ¬ë°±": 798,
      "ĠìĿ¼ìĭŃìĿ´ë§Įêµ¬ì²ľìĿ¼ë°±": 799,
      "ĠìĿ¼ìĭŃìĿ¼ë§ĮíĮĶì²ľ": 800,
      "ĠìĿ¼ìĭŃìĿ¼ë§Įìľ¡ì²ľìĤ¼ë°±": 801,
      "ĠìĿ¼ìĭŃìĤ¬ë§Įìľ¡ë°±": 802,
      "ĠìĿ¼ìĭŃìĿ´ë§ĮíĮĶì²ľìĤ¬ë°±": 803,
      "ĠìĿ¼ìĭŃìĿ´ë§Įìľ¡ë°±": 804,
      "ĠìĿ¼ìĭŃìĿ¼ë§Įì¹łì²ľìĤ¬ë°±": 805,
      "ĠìĿ¼ìĭŃìĿ¼ë§ĮíĮĶì²ľìĤ¬ë°±": 806,
      "ĠìĿ¼ìĭŃìĿ¼ë§Įìľ¡ì²ľíĮĶë°±": 807,
      "ĠìĿ¼ìĭŃìĿ¼ë§ĮíĮĶì²ľìĺ¤ë°±": 808,
      "ĠìĿ¼ìĭŃìĿ¼ë§Įìľ¡ì²ľìĿ´ë°±": 809,
      "ĠìĿ¼ìĭŃìĤ¬ë§ĮìĤ¬ë°±": 810,
      "ĠìĿ¼ìĭŃì¹łë§Įì¹łë°±": 811,
      "ĠìĿ¼ìĭŃìĿ´ë§ĮíĮĶì²ľìĤ¼ë°±": 812,
      "ĠìĿ¼ìĭŃë§Įìĺ¤ì²ľìĿ´ë°±": 813,
      "ĠìĿ¼ìĭŃìĿ¼ë§Įì¹łì²ľìĺ¤ë°±": 814,
      "ĠìĿ¼ìĭŃì¹łë§ĮìĿ´ì²ľ": 815,
      "ĠìĿ¼ìĭŃìĿ´ë§Įì¹łì²ľì¹łë°±": 816,
      "ĠìĿ¼ìĭŃì¹łë§Įìľ¡ë°±": 817,
      "ĠìĿ¼ìĭŃìĿ´ë§Įìľ¡": 818,
      "ĠìĿ¼ìĭŃìĿ´ë§Įêµ¬ì²ľêµ¬ë°±": 819,
      "ĠìĿ¼ìĭŃìĿ¼ë§ĮíĮĶì²ľìĿ¼ë°±": 820,
      "ĠìĿ¼ìĭŃìĤ¬ë§Įìĺ¤ë°±": 821,
      "ĠìĿ¼ìĭŃë§Įìĺ¤ì²ľìĤ¼ë°±": 822,
      "ĠìĿ¼ìĭŃìĤ¼ë§Įìĺ¤ë°±": 823,
      "ĠìĿ¼ìĭŃë§ĮìĤ¬ì²ľíĮĶë°±": 824,
      "ĠìĿ¼ìĭŃì¹łë§ĮìĿ¼ë°±": 825,
      "ĠìĿ¼ìĭŃìĤ¼ë§ĮìĤ¼ì²ľìĺ¤ë°±": 826,
      "ĠìĿ¼ìĭŃìĤ¼ë§Įêµ¬ì²ľêµ¬ë°±": 827,
      "ĠìĿ¼ìĭŃìĿ´ë§ĮíĮĶì²ľìĿ¼ë°±": 828,
      "ĠìĿ¼ìĭŃìĤ¼ë§ĮìĿ¼ì²ľíĮĶë°±": 829,
      "ĠìĿ¼ìĭŃì¹łë§ĮìĿ¼ì²ľìľ¡ë°±": 830,
      "ĠìĿ¼ìĭŃìĿ¼ë§Įìľ¡ì²ľì¹łë°±": 831,
      "ĠìĿ¼ìĭŃìĿ´ë§Įìĺ¤ë°±": 832,
      "ĠìĿ¼ìĭŃìĿ¼ë§ĮìĤ¬": 833,
      "ĠìĿ¼ìĭŃë§Įìĺ¤ì²ľìĿ¼ë°±": 834,
      "ĠìĿ¼ìĭŃë§Įìĺ¤ì²ľìĺ¤ë°±": 835,
      "ĠìĿ¼ìĭŃë§ĮìĤ¬ì²ľêµ¬ë°±": 836,
      "ĠìĿ¼ìĭŃìĿ¼ë§Įìľ¡ì²ľìĤ¬ë°±": 837,
      "ĠìĿ¼ìĭŃìĿ´ë§Įì¹łì²ľêµ¬ë°±": 838,
      "ĠìĿ¼ìĭŃìĿ´ë§ĮìĿ¼ì²ľì": 839,
      "ĠìĿ¼ìĭŃìĿ¼ë§Įìľ¡ì²ľìĿ¼ë°±": 840,
      "ĠìĿ¼ìĭŃìĿ´ë§ĮìĤ¼ë°±": 841,
      "ĠìĿ¼ìĭŃì¹łë§ĮìĿ´ì²ľìĿ¼ë°±": 842,
      "ĠìĿ¼ìĭŃìĿ´ë§Įì¹łì²ľíĮĶë°±": 843,
      "ĠìĿ¼ìĭŃìĿ´ë§Įì¹łë°±": 844,
      "ĠìĿ¼ìĭŃìĤ¬ë§ĮìĿ¼ë°±": 845,
      "ĠìĿ¼ìĭŃìĿ´ë§ĮìĿ´ë°±": 846,
      "ĠìĿ¼ìĭŃìĿ´ë§ĮìĤ¬ë°±": 847,
      "ĠìĿ¼ìĭŃìĿ´ë§ĮìĿ¼ë°±": 848,
      "ĠìĿ¼ìĭŃìĤ¼ë§Įêµ¬ë°±": 849,
      "ĠìĿ¼ìĭŃìĿ´ë§Įêµ¬ì²ľìĤ¼ë°±": 850,
      "ĠìĿ¼ìĭŃìĿ´ë§ĮìĤ¬ì²ľì¹łë°±": 851,
      "ĠìĿ¼ìĭŃìĤ¼ë§ĮìĿ¼ì²ľì¹łë°±": 852,
      "ĠìĿ¼ìĭŃìĿ¼ë§ĮíĮĶì²ľì¹łë°±": 853,
      "ĠìĿ¼ìĭŃë§Įìĺ¤ì²ľìĤ¬ë°±": 854,
      "ĠìĿ¼ìĭŃìĿ´ë§ĮìĤ¬ì²ľìĺ¤ë°±": 855,
      "ĠìĿ¼ìĭŃìĤ¼ë§ĮìĿ¼ì²ľêµ¬ë°±": 856,
      "ĠìĿ¼ìĭŃë§ĮìĤ¬ì²ľì¹łë°±": 857,
      "ĠìĿ¼ìĭŃìĤ¼ë§Įì¹łë°±": 858,
      "ĠìĿ¼ìĭŃìĿ´ë§ĮìĿ¼ì²ľêµ¬ë°±": 859,
      "ĠìĿ¼ìĭŃìĤ¼ë§ĮìĿ´ì²ľìĿ´ë°±": 860,
      "ĠìĿ¼ìĭŃì¹łë§ĮìĿ´ì²ľíĮĶë°±": 861,
      "ĠìĿ¼ìĭŃìĤ¼ë§ĮìĿ´ì²ľìĤ¬ë°±": 862,
      "ĠìĿ¼ìĭŃìĿ¼ë§Įêµ¬ì²ľ": 863,
      "ĠìĿ¼ìĭŃìĿ¼ë§Įìľ¡ì²ľìĺ¤ë°±": 864,
      "ĠìĿ¼ìĭŃë§Įêµ¬ì²ľìĤ¼ë°±": 865,
      "ĠìĿ¼ìĭŃìĿ¼ë§Įêµ¬ì²ľì¹łë°±": 866,
      "ĠìĿ¼ìĭŃìĤ¼ë§ĮìĤ¼ë°±": 867,
      "ĠìĿ¼ìĭŃìĿ´ë§ĮíĮĶì²ľìĿ´ë°±": 868,
      "ĠìĿ¼ìĭŃë§Įìľ¡ì²ľìĿ´ë°±": 869,
      "ĠìĿ¼ìĭŃìĤ¼ë§ĮìĿ´ì²ľêµ¬ë°±": 870,
      "ĠìĿ¼ìĭŃë§ĮíĮĶì²ľìĿ¼ë°±": 871,
      "ĠìĿ¼ìĭŃë§Įìľ¡ì²ľìĤ¼ë°±": 872,
      "ĠìĿ¼ìĭŃìĿ¼ë§ĮíĮĶì²ľíĮĶë°±": 873,
      "ĠìĿ¼ìĭŃë§Įìĺ¤ì²ľ": 874,
      "ĠìĿ¼ìĭŃìĿ¼ë§Įìľ¡ì²ľìľ¡ë°±": 875,
      "ĠìĿ¼ìĭŃìĿ¼ë§Įêµ¬ì²ľìľ¡ë°±": 876,
      "ĠìĿ¼ìĭŃìĤ¼ë§ĮìĤ¬ë°±": 877,
      "ĠìĿ¼ìĭŃìĤ¼ë§ĮìĤ¼ì²ľ": 878,
      "ĠìĿ¼ìĭŃìĿ´ë§ĮíĮĶì²ľ": 879,
      "ĠìĿ¼ìĭŃìĤ¼ë§ĮìĿ¼ë°±": 880,
      "ĠìĿ¼ìĭŃìĤ¼ë§ĮìĿ´ë°±": 881,
      "ĠìĿ¼ìĭŃìĿ¼ë§ĮíĮĶì²ľêµ¬ë°±": 882,
      "ĠìĿ¼ìĭŃìĿ´ë§ĮìĤ¬ì²ľìľ¡ë°±": 883,
      "ĠìĿ¼ìĭŃë§Įêµ¬ì²ľìĿ´ë°±": 884,
      "ĠìĿ¼ìĭŃìĿ´ë§Įì¹łì²ľìľ¡ë°±": 885,
      "ĠìĿ¼ìĭŃìĤ¼ë§ĮìĿ´ì²ľíĮĶë°±": 886,
      "ĠìĿ¼ìĭŃë§Įêµ¬ì²ľìĿ¼ë°±": 887,
      "ĠìĿ¼ìĭŃìĿ¼ë§Įìĺ¤ì²ľíĮĶë°±": 888,
      "ĠìĿ¼ìĭŃìĿ´ë§Įì¹łì²ľìĿ¼ë°±": 889,
      "ĠìĿ¼ìĭŃìĿ¼ë§Įìľ¡ì²ľ": 890,
      "ĠìĿ¼ìĭŃìĿ¼ë§Įìĺ¤ì²ľêµ¬ë°±": 891,
      "ĠìĿ¼ìĭŃìĤ¼ë§ĮíĮĶë°±": 892,
      "ĠìĿ¼ìĭŃìĿ´ë§ĮìĤ¬ì²ľíĮĶë°±": 893,
      "ĠìĿ¼ìĭŃìĤ¼ë§ĮìĿ´ì²ľ": 894,
      "ĠìĿ¼ìĭŃë§Įìĺ¤ì²ľìľ¡ë°±": 895,
      "ĠìĿ¼ìĭŃìĤ¼ë§Įìľ¡ë°±": 896,
      "ĠìĿ¼ìĭŃìĿ¼ë§ĮíĮĶì²ľìľ¡ë°±": 897,
      "ĠìĿ¼ìĭŃìĤ¼ë§ĮìĤ¼ì²ľìĤ¬ë°±": 898,
      "ĠìĿ¼ìĭŃìĤ¼ë§ĮìĿ´ì²ľìľ¡ë°±": 899,
      "ĠìĿ¼ìĭŃìĤ¼ë§ĮìĿ´ì²ľìĤ¼ë°±": 900,
      "ĠìĿ¼ìĭŃìĿ´ë§Įì¹łì²ľìĺ¤ë°±": 901,
      "ĠìĿ¼ìĭŃìĿ´ë§ĮìĤ¬ì²ľìĤ¬ë°±": 902,
      "ĠìĿ¼ìĭŃìĿ¼ë§Įêµ¬ì²ľìĺ¤ë°±": 903,
      "ĠìĿ¼ìĭŃìĿ¼ë§ĮìĿ¼ì²ľ": 904,
      "ĠìĿ¼ìĭŃë§Įìĺ¤ì²ľì¹łë°±": 905,
      "ĠìĿ¼ìĭŃì¹łë§ĮìĿ´ì²ľìĤ¬ë°±": 906,
      "ĠìĿ¼ìĭŃë§Įêµ¬ì²ľìĤ¬ë°±": 907,
      "ĠìĿ¼ìĭŃìĤ¼ë§ĮìĿ¼ì²ľìľ¡ë°±": 908,
      "ĠìĿ¼ìĭŃìĿ´ë§Įì¹łì²ľìĿ´ë°±": 909,
      "ĠìĿ¼ìĭŃìĤ¼ë§ĮìĤ¼ì²ľìĿ´ë°±": 910,
      "ĠìĿ¼ìĭŃìĿ´ë§Įêµ¬ì²ľìĺ¤ë°±": 911,
      "ĠìĿ¼ìĭŃìĿ´ë§Įêµ¬ì²ľíĮĶë°±": 912,
      "ĠìĿ¼ìĭŃìĤ¼ë§ĮìĿ´ì²ľìĺ¤ë°±": 913,
      "ĠìĿ¼ìĭŃìĿ´ë§Įìĺ¤ì²ľ": 914,
      "ĠìĿ¼ìĭŃìĤ¼ë§ĮìĿ´ì²ľìĿ¼ë°±": 915,
      "ĠìĿ¼ìĭŃë§ĮìĤ¼ì²ľì¹łë°±": 916,
      "ĠìĿ¼ìĭŃìĿ´ë§Įìĺ¤ì²ľìĿ¼ë°±": 917,
      "ĠìĿ¼ìĭŃìĿ´ë§ĮìĤ¬ì²ľêµ¬ë°±": 918,
      "ĠìĿ¼ìĭŃìĿ¼ë§Įêµ¬ì²ľìĤ¼ë°±": 919,
      "ĠìĿ¼ìĭŃìĿ¼ë§Įìĺ¤ì²ľ": 920,
      "ĠìĿ¼ìĭŃìĤ¼ë§ĮìĿ¼ì²ľìĤ¬ë°±": 921,
      "ĠìĿ¼ìĭŃìĿ´ë§ĮìĿ´ì²ľìĿ´ë°±": 922,
      "ĠìĿ¼ìĭŃìĿ´ë§Įêµ¬ì²ľìľ¡ë°±": 923,
      "ĠìĿ¼ìĭŃìĤ¼ë§ĮìĤ¼ì²ľìĤ¼ë°±": 924,
      "ĠìĿ¼ìĭŃìĿ´ë§ĮìĿ´ì²ľ": 925,
      "ĠìĿ¼ìĭŃë§ĮìĤ¼ì²ľêµ¬ë°±": 926,
      "ĠìĿ¼ìĭŃìĿ´ë§Įìĺ¤ì²ľìĤ¼ë°±": 927,
      "ĠìĿ¼ìĭŃìĿ´ë§Įì¹łì²ľ": 928,
      "ĠìĿ¼ìĭŃìĿ´ë§Įêµ¬ë°±": 929,
      "ĠìĿ¼ìĭŃìĿ¼ë§Įêµ¬ì²ľíĮĶë°±": 930,
      "ĠìĿ¼ìĭŃë§Įìĺ¤ì²ľíĮĶë°±": 931,
      "ĠìĿ¼ìĭŃìĿ´ë§Įêµ¬ì²ľìĤ¬ë°±": 932,
      "ĠìĿ¼ìĭŃì¹łë§ĮìĿ´ì²ľì¹łë°±": 933,
      "ĠìĿ¼ìĭŃìĿ´ë§Įêµ¬ì²ľì¹łë°±": 934,
      "ĠìĿ¼ìĭŃìĿ¼ë§Įêµ¬ì²ľìĤ¬ë°±": 935,
      "ĠìĿ¼ìĭŃìĿ¼ë§ĮìĿ¼ì²ľì": 936,
      "ĠìĿ¼ìĭŃë§ĮìĤ¼ì²ľìľ¡ë°±": 937,
      "ĠìĿ¼ìĭŃìĿ´ë§ĮíĮĶë°±": 938,
      "ĠìĿ¼ìĭŃë§ĮìĤ¬ì²ľìľ¡ë°±": 939,
      "ĠìĿ¼ìĭŃì¹łë§ĮìĿ´ì²ľìĺ¤ë°±": 940,
      "ĠìĿ¼ìĭŃìĿ¼ë§Įìĺ¤ì²ľìĺ¤ë°±": 941,
      "ĠìĿ¼ìĭŃìĿ´ë§Įìĺ¤ì²ľìĿ´ë°±": 942,
      "ĠìĿ¼ìĭŃìĤ¼ë§ĮìĤ¼ì²ľìĿ¼ë°±": 943,
      "ĠìĿ¼ìĭŃë§ĮìĤ¬ì²ľ": 944,
      "ĠìĿ¼ìĭŃìĤ¼ë§ĮìĿ¼ì²ľìĿ¼ë°±": 945,
      "ĠìĿ¼ìĭŃìĿ¼ë§Įìĺ¤ì²ľìĤ¬ë°±": 946,
      "ĠìĿ¼ìĭŃìĿ´ë§ĮìĤ¼ì²ľìĿ¼ë°±": 947,
      "ĠìĿ¼ìĭŃìĿ´ë§ĮìĿ¼ì²ľíĮĶë°±": 948,
      "ĠìĿ¼ìĭŃìĿ´ë§ĮìĿ´ì²ľìĿ¼ë°±": 949,
      "ĠìĿ¼ìĭŃë§Įìľ¡ì²ľìĿ¼ë°±": 950,
      "ĠìĿ¼ìĭŃìĿ´ë§ĮìĤ¬ì²ľìĿ¼ë°±": 951,
      "ĠìĿ¼ìĭŃìĿ¼ë§Įêµ¬ì²ľêµ¬ë°±": 952,
      "ĠìĿ¼ìĭŃìĿ¼ë§Įêµ¬ì²ľìĿ´ë°±": 953,
      "ĠìĿ¼ìĭŃìĤ¼ë§ĮìĿ´ì²ľì¹łë°±": 954,
      "ĠìĿ¼ìĭŃë§Įêµ¬ì²ľìĺ¤ë°±": 955,
      "ĠìĿ¼ìĭŃìĿ¼ë§ĮìĿ´": 956,
      "ĠìĿ¼ìĭŃìĿ´ë§Įêµ¬ì²ľìĿ´ë°±": 957,
      "ĠìĿ¼ìĭŃìĤ¼ë§ĮìĿ¼ì²ľìĤ¼ë°±": 958,
      "ĠìĿ¼ìĭŃìĿ´ë§ĮìĿ´ì²ľìĤ¼ë°±": 959,
      "ĠìĿ¼ìĭŃìĿ´ë§ĮìĤ¼ì²ľìĿ´ë°±": 960,
      "ĠìĿ¼ìĭŃìĿ´ë§Įì¹łì²ľìĤ¼ë°±": 961,
      "ĠìĿ¼ìĭŃìĿ´ë§ĮìĤ¬ì²ľ": 962,
      "ĠìĿ¼ìĭŃë§Įìĺ¤ì²ľêµ¬ë°±": 963,
      "ĠìĿ¼ìĭŃìĿ¼ë§Įêµ¬ì²ľìĿ¼ë°±": 964,
      "ĠìĿ¼ìĭŃì¹łë§ĮìĿ´ì²ľìĤ¼ë°±": 965,
      "ĠìĿ¼ìĭŃìĿ´ë§Įì¹łì²ľìĤ¬ë°±": 966,
      "ĠìĿ¼ìĭŃìĿ¼ë§ĮìĤ¬ì²ľêµ¬ë°±": 967,
      "ĠìĿ¼ìĭŃìĿ´ë§ĮìĿ¼ì²ľì¹łë°±": 968,
      "ĠìĿ¼ìĭŃë§ĮìĤ¬ì²ľìĤ¼ë°±": 969,
      "ĠìĿ¼ìĭŃìĿ¼ë§Įìĺ¤ì²ľìĿ¼ë°±": 970,
      "ĠìĿ¼ìĭŃë§ĮìĤ¬ì²ľìĿ´ë°±": 971,
      "ĠìĿ¼ìĭŃë§ĮìĤ¬ì²ľìĿ¼ë°±": 972,
      "ĠìĿ¼ìĭŃìĿ´ë§ĮìĤ¼ì²ľêµ¬ë°±": 973,
      "ĠìĿ¼ìĭŃìĿ¼ë§Įìĺ¤ì²ľìľ¡ë°±": 974,
      "ĠìĿ¼ìĭŃìĿ´ë§ĮìĤ¼ì²ľíĮĶë°±": 975,
      "ĠìĿ¼ìĭŃë§ĮìĤ¬ì²ľìĤ¬ë°±": 976,
      "Ĥ¼ì²ľ": 977,
      "ĠìĿ¼ìĭŃì¹łë§ĮìĤ¼ì²ľ": 978,
      "ĠìĿ¼ìĭŃìĤ¼ë§ĮìĿ¼ì²ľìĿ´ë°±": 979,
      "ĠìĿ¼ìĭŃìĿ´ë§ĮìĤ¼ì²ľìĺ¤ë°±": 980,
      "ĠìĿ¼ìĭŃìĿ´ë§ĮìĿ´ì²ľíĮĶë°±": 981,
      "ĠìĿ¼ìĭŃìĿ´ë§Įìĺ¤ì²ľìĤ¬ë°±": 982,
      "ĠìĿ¼ìĭŃìĿ´ë§ĮìĤ¼ì²ľìĤ¬ë°±": 983,
      "ĠìĿ¼ìĭŃìĿ´ë§ĮìĤ¼ì²ľìĤ¼ë°±": 984,
      "ĠìĿ¼ìĭŃë§Įìľ¡ì²ľ": 985,
      "ĠìĿ¼ìĭŃìĿ´ë§Įìľ¡ì²ľ": 986,
      "ĠìĿ¼ìĭŃë§ĮìĤ¬ì²ľìĺ¤ë°±": 987,
      "ĠìĿ¼ìĭŃìĿ´ë§ĮìĤ¬ì²ľìĿ´ë°±": 988,
      "ĠìĿ¼ìĭŃìĿ´ë§ĮìĤ¬ì²ľìĤ¼ë°±": 989,
      "ĠìĿ¼ìĭŃìĿ¼ë§Įìĺ¤ì²ľì¹łë°±": 990,
      "ĠìĿ¼ìĭŃìĿ¼ë§ĮìĿ¼ì²ľìĺ¤ë°±": 991,
      "ĠìĿ¼ìĭŃìĿ´ë§Įìĺ¤ì²ľìĺ¤ë°±": 992,
      "ĠìĿ¼ìĭŃë§ĮìĤ¼ì²ľìĺ¤ë°±": 993,
      "ĠìĿ¼ìĭŃìĿ¼ë§ĮìĤ¬ì²ľíĮĶë°±": 994,
      "ĠìĿ¼ìĭŃë§ĮìĤ¼ì²ľíĮĶë°±": 995,
      "ĠìĿ¼ìĭŃìĿ´ë§ĮìĿ´ì²ľìĤ¬ë°±": 996,
      "ĠìĿ¼ìĭŃìĿ¼ë§ĮìĤ¼ë°±": 997,
      "ĠìĿ¼ìĭŃìĿ¼ë§ĮíĮĶë°±": 998,
      "ĠìĿ¼ìĭŃìĿ´ë§Įìľ¡ì²ľêµ¬ë°±": 999,
      "ĠìĿ¼ìĭŃìĿ¼ë§ĮìĿ¼ì²ľìĿ¼ë°±": 1000,
      "ĠìĿ¼ìĭŃìĿ´ë§Įìĺ¤ì²ľíĮĶë°±": 1001,
      "ĠìĿ¼ìĭŃìĤ¼ë§ĮìĿ¼ì²ľìĺ¤ë°±": 1002,
      "ĠìĿ¼ìĭŃì¹łë§ĮìĿ´ì²ľêµ¬ë°±": 1003,
      "ĠìĿ¼ìĭŃìĿ¼ë§ĮìĿ¼ì²ľìĤ¬ë°±": 1004,
      "ĠìĿ¼ìĭŃìĿ´ë§ĮìĿ¼ì²ľìĤ¬ë°±": 1005,
      "ĠìĿ¼ìĭŃìĿ´ë§ĮìĿ¼ì²ľìľ¡ë°±": 1006,
      "ĠìĿ¼ìĭŃìĿ¼ë§Įìĺ¤ì²ľìĿ´ë°±": 1007,
      "ĠìĿ¼ìĭŃìĿ¼ë§ĮìĤ¬ì²ľì¹łë°±": 1008,
      "ĠìĿ¼ìĭŃìĿ´ë§ĮìĿ´ì²ľêµ¬ë°±": 1009,
      "ĠìĿ¼ìĭŃìĿ´ë§ĮìĿ¼ì²ľìĤ¼ë°±": 1010,
      "ĠìĿ¼ìĭŃìĿ´ë§Įìĺ¤ì²ľêµ¬ë°±": 1011,
      "ĠìĿ¼ìĭŃìĿ´ë§Įìľ¡ì²ľìĤ¬ë°±": 1012,
      "ĠìĿ¼ìĭŃìĿ´ë§ĮìĿ¼ì²ľìĿ´ë°±": 1013,
      "ĠìĿ¼ìĭŃìĿ´ë§Įìĺ¤ì²ľì¹łë°±": 1014,
      "ĠìĿ¼ìĭŃìĿ¼ë§Įìĺ¤ì²ľìĤ¼ë°±": 1015,
      "ĠìĿ¼ìĭŃìĿ¼ë§Įìľ¡ë°±": 1016,
      "ĠìĿ¼ìĭŃë§Įêµ¬ì²ľìľ¡ë°±": 1017,
      "ĠìĿ¼ìĭŃìĿ´ë§Įìľ¡ì²ľìĤ¼ë°±": 1018,
      "ĠìĿ¼ìĭŃìĿ¼ë§ĮìĿ¼ì²ľìĿ´ë°±": 1019,
      "ĠìĿ¼ìĭŃìĿ´ë§ĮìĤ¼ì²ľìľ¡ë°±": 1020,
      "ĠìĿ¼ìĭŃìĿ´ë§ĮìĤ¼ì²ľì¹łë°±": 1021,
      "ĠìĿ¼ìĭŃìĿ´ë§Įìľ¡ì²ľìĿ¼ë°±": 1022,
      "ĠìĿ¼ìĭŃìĿ´ë§ĮìĿ¼ì²ľìĺ¤ë°±": 1023,
      "ĠìĿ¼ìĭŃìĿ¼ë§ĮìĿ´ì²ľìĿ´ë°±": 1024,
      "ĠìĿ¼ìĭŃìĿ´ë§ĮìĿ´ì²ľì¹łë°±": 1025,
      "ĠìĿ¼ìĭŃìĿ¼ë§ĮìĤ¬ì²ľìĤ¼ë°±": 1026,
      "ĠìĿ¼ìĭŃìĿ¼ë§Įêµ¬ë°±": 1027,
      "ĠìĿ¼ìĭŃë§Įêµ¬ì²ľêµ¬ë°±": 1028,
      "ĠìĿ¼ìĭŃì¹łë§ĮìĿ´ì²ľìľ¡ë°±": 1029,
      "ĠìĿ¼ìĭŃìĿ´ë§Įìĺ¤ì²ľìľ¡ë°±": 1030,
      "ĠìĿ¼ìĭŃìĿ´ë§ĮìĿ¼ì²ľìĿ¼ë°±": 1031,
      "ĠìĿ¼ìĭŃìĿ¼ë§ĮìĿ´ì²ľìĤ¼ë°±": 1032,
      "ĠìĿ¼ìĭŃìĿ¼ë§ĮìĤ¬ì²ľ": 1033,
      "ĠìĿ¼ìĭŃë§Įêµ¬ì²ľíĮĶë°±": 1034,
      "ĠìĿ¼ìĭŃìĿ´ë§Įìľ¡ì²ľìĿ´ë°±": 1035,
      "ĠìĿ¼ìĭŃìĿ¼ë§ĮìĿ´ì²ľìĤ¬ë°±": 1036,
      "ĠìĿ¼ìĭŃìĿ´ë§ĮìĿ´ì²ľìĺ¤ë°±": 1037,
      "ĠìĿ¼ìĭŃìĿ¼ë§ĮìĤ¼": 1038,
      "ĠìĿ¼ìĭŃìĿ¼ë§Įì¹łë°±": 1039,
      "ĠìĿ¼ìĭŃìĿ¼ë§ĮìĿ¼ë°±": 1040,
      "ĠìĿ¼ìĭŃë§Įêµ¬ì²ľì¹łë°±": 1041,
      "ĠìĿ¼ìĭŃìĿ´ë§Įìľ¡ì²ľìĺ¤ë°±": 1042,
      "ĠìĿ¼ìĭŃìĿ´ë§Įìľ¡ì²ľìľ¡ë°±": 1043,
      "ĠìĿ¼ìĭŃìĿ´ë§Įìľ¡ì²ľì¹łë°±": 1044,
      "ĠìĿ¼ìĭŃìĿ´ë§ĮìĿ´ì²ľìľ¡ë°±": 1045,
      "ĠìĿ¼ìĭŃìĿ¼ë§ĮìĿ¼ì²ľì¹łë°±": 1046,
      "ĠìĿ¼ìĭŃìĿ´ë§Įìľ¡ì²ľíĮĶë°±": 1047,
      "ĠìĿ¼ìĭŃìĿ´ë§ĮìĤ¼ì²ľ": 1048,
      "ĠìĿ¼ìĭŃìĿ¼ë§ĮìĿ´ì²ľêµ¬ë°±": 1049,
      "ĠìĿ¼ìĭŃìĿ¼ë§ĮìĿ´ì²ľìľ¡ë°±": 1050,
      "ĠìĿ¼ìĭŃìĿ¼ë§ĮìĤ¬ë°±": 1051,
      "ĠìĿ¼ìĭŃìĿ¼ë§Įìĺ¤ë°±": 1052,
      "ĠìĿ¼ìĭŃìĿ¼ë§ĮìĿ´ë°±": 1053,
      "ĠìĿ¼ìĭŃìĿ¼ë§ĮìĿ¼ì²ľìĤ¼ë°±": 1054,
      "ĠìĿ¼ìĭŃë§ĮìĤ¼ì²ľìĤ¬ë°±": 1055,
      "ĠìĿ¼ìĭŃìĿ¼ë§ĮìĤ¬ì²ľìľ¡ë°±": 1056,
      "ĠìĿ¼ìĭŃìĿ¼ë§ĮìĿ¼ì²ľìľ¡ë°±": 1057,
      "ĠìĿ¼ìĭŃìĿ¼ë§ĮìĿ´ì²ľìĿ¼ë°±": 1058,
      "ĠìĿ¼ìĭŃìĿ¼ë§ĮìĤ¬ì²ľìĿ´ë°±": 1059,
      "ĠìĿ¼ìĭŃìĿ¼ë§ĮìĿ´ì²ľìĺ¤ë°±": 1060,
      "ĠìĿ¼ìĭŃìĿ¼ë§ĮìĤ¼ì²ľêµ¬ë°±": 1061,
      "ĠìĿ¼ìĭŃìĿ¼ë§ĮìĤ¼ì²ľíĮĶë°±": 1062,
      "ĠìĿ¼ìĭŃìĿ¼ë§ĮìĤ¬ì²ľìĿ¼ë°±": 1063,
      "ĠìĿ¼ìĭŃìĿ¼ë§ĮìĤ¼ì²ľìĤ¼ë°±": 1064
    },
    "merges": [
      "ì Ŀ",
      "ìĿ ¼",
      "ìĿ¼ ì",
      "§ Į",
      "ë §Į",
      "Ġ ìĿ¼ì",
      "ĭ Ń",
      "ĠìĿ¼ì ĭŃ",
      "² ľ",
      "° ±",
      "ë °±",
      "ĠìĿ¼ìĭŃ ì",
      "ì ²ľ",
      "ë§Į ì",
      "ĺ ¤",
      "ì²ľ ì",
      "Ĥ ¬",
      "ľ ¡",
      "ĠìĿ¼ìĭŃì ĺ¤",
      "Ĥ ¼",
      "¹ ł",
      "í Į",
      "íĮ Ķ",
      "µ ¬",
      "ê µ¬",
      "ìĿ ´",
      "ĠìĿ¼ìĭŃì Ĥ¬",
      "ĠìĿ¼ìĭŃìĺ¤ ë§Į",
      "ĠìĿ¼ìĭŃì ľ¡",
      "ĠìĿ¼ìĭŃìĺ¤ ë§Įì",
      "ĠìĿ¼ìĭŃì Ĥ¼",
      "ĠìĿ¼ìĭŃìĤ¬ ë§Įì",
      "êµ¬ ë°±",
      "ľ¡ ë°±",
      "ìĿ´ ë°±",
      "íĮĶ ë°±",
      "¹ł ë°±",
      "Ĥ¬ ë°±",
      "Ĥ¼ ë°±",
      "ĺ¤ ë°±",
      "ìĿ¼ ë°±",
      "ĠìĿ¼ìĭŃìĤ¬ ë§Į",
      "ĠìĿ¼ìĭŃìľ¡ ë§Įì",
      "ìĿ¼ì ²ľ",
      "ĠìĿ¼ìĭŃìĤ¼ ë§Įì",
      "ì²ľ êµ¬ë°±",
      "ì²ľì ľ¡ë°±",
      "ì²ľ íĮĶë°±",
      "ì²ľì ¹łë°±",
      "ì²ľ ìĿ´ë°±",
      "ì²ľì Ĥ¬ë°±",
      "ĠìĿ¼ìĭŃìľ¡ ë§Į",
      "ì²ľì Ĥ¼ë°±",
      "ì²ľì ĺ¤ë°±",
      "ì²ľ ìĿ¼ë°±",
      "ĠìĿ¼ìĭŃìĺ¤ë§Į íĮĶ",
      "ë§Į íĮĶ",
      "ìĿ¼ì²ľ ì",
      "ĠìĿ¼ìĭŃìĺ¤ë§Į êµ¬",
      "ĠìĿ¼ìĭŃ ë§Įì",
      "ĠìĿ¼ìĭŃ ìĿ´",
      "ĠìĿ¼ìĭŃ ìĿ¼",
      "ĠìĿ¼ìĭŃìĺ¤ë§Įì ĺ¤",
      "ĠìĿ¼ìĭŃìĺ¤ë§Įì ¹ł",
      "ĠìĿ¼ìĭŃìĤ¬ë§Į êµ¬",
      "ĠìĿ¼ìĭŃìĺ¤ë§Įì ľ¡",
      "ë§Į êµ¬",
      "ĠìĿ¼ìĭŃìĤ¬ë§Įì ľ¡",
      "ĠìĿ¼ìĭŃìĺ¤ë§Į ìĿ´",
      "ĠìĿ¼ìĭŃì ¹ł",
      "ĠìĿ¼ìĭŃìĤ¬ë§Į íĮĶ",
      "ĠìĿ¼ìĭŃìĺ¤ë§Įì Ĥ¬",
      "ĠìĿ¼ìĭŃìĺ¤ë§Įì Ĥ¼",
      "ĠìĿ¼ìĭŃìĤ¬ë§Įì ¹ł",
      "ĠìĿ¼ìĭŃìĿ¼ ë§Įì",
      "ĠìĿ¼ìĭŃìĤ¬ë§Įì Ĥ¼",
      "ĠìĿ¼ìĭŃìĤ¼ë§Įì ¹ł",
      "ĠìĿ¼ìĭŃì¹ł ë§Į",
      "ĠìĿ¼ìĭŃìĤ¼ë§Įì ĺ¤",
      "ĠìĿ¼ìĭŃìĤ¬ë§Įì Ĥ¬",
      "ĠìĿ¼ìĭŃìĤ¼ ë§ĮíĮĶ",
      "ĠìĿ¼ìĭŃìľ¡ë§Įì ĺ¤",
      "ĠìĿ¼ìĭŃë§Įì ¹ł",
      "ĠìĿ¼ìĭŃìĺ¤ë§Į ìĿ¼ì²ľ",
      "ĠìĿ¼ìĭŃìĤ¼ë§Įì ľ¡",
      "ĠìĿ¼ìĭŃìĤ¬ë§Į ìĿ´",
      "ĠìĿ¼ìĭŃìľ¡ë§Į ìĿ´",
      "ĠìĿ¼ìĭŃìĿ´ ë§Įì",
      "ĠìĿ¼ìĭŃìĺ¤ë§Į ìĿ¼ì²ľì",
      "ĠìĿ¼ìĭŃìľ¡ë§Įì ľ¡",
      "ĠìĿ¼ìĭŃìľ¡ë§Įì Ĥ¼",
      "ĠìĿ¼ìĭŃìĤ¼ë§Įì Ĥ¬",
      "ĠìĿ¼ìĭŃìĤ¬ë§Įì ĺ¤",
      "ĠìĿ¼ìĭŃìľ¡ë§Į íĮĶ",
      "ĠìĿ¼ìĭŃìĤ¼ ë§Įêµ¬",
      "ĠìĿ¼ìĭŃìľ¡ë§Įì Ĥ¬",
      "ĠìĿ¼ìĭŃìľ¡ë§Įì ¹ł",
      "ĠìĿ¼ìĭŃìľ¡ë§Į êµ¬",
      "ĠìĿ¼ìĭŃìĤ¼ ë§Į",
      "ĠìĿ¼ìĭŃ ë§ĮíĮĶ",
      "ĠìĿ¼ìĭŃìĿ¼ë§Įì ¹ł",
      "ĠìĿ¼ìĭŃìľ¡ë§Į ìĿ¼ì²ľ",
      "ĠìĿ¼ìĭŃìľ¡ë§Į ìĿ¼ì²ľì",
      "ĠìĿ¼ìĭŃìĿ´ ë§ĮíĮĶ",
      "ĠìĿ¼ìĭŃë§Įì ľ¡",
      "ĠìĿ¼ìĭŃìĤ¼ë§Įì Ĥ¼",
      "ĠìĿ¼ìĭŃìĿ¼ ë§ĮíĮĶ",
      "ĠìĿ¼ìĭŃìĿ¼ë§Įì ľ¡",
      "ĠìĿ¼ìĭŃìĤ¬ë§Į ìĿ¼ì²ľ",
      "ĠìĿ¼ìĭŃìĤ¬ë§Į ìĿ¼ì²ľì",
      "ĠìĿ¼ìĭŃìĿ´ ë§Į",
      "ĠìĿ¼ìĭŃìĺ¤ë§ĮíĮĶ ì²ľêµ¬ë°±",
      "ĠìĿ¼ìĭŃì¹łë§Į ìĿ¼ì²ľì",
      "ĠìĿ¼ìĭŃë§Įì ĺ¤",
      "ĠìĿ¼ìĭŃì¹ł ë§Įì",
      "ĠìĿ¼ìĭŃìĿ´ ë§Įêµ¬",
      "ĠìĿ¼ìĭŃìĺ¤ë§Įêµ¬ ì²ľ",
      "ĠìĿ¼ìĭŃìĺ¤ë§ĮíĮĶ ì²ľíĮĶë°±",
      "ĠìĿ¼ìĭŃìĺ¤ë§Įêµ¬ ì²ľìĿ¼ë°±",
      "ĠìĿ¼ìĭŃìĺ¤ë§ĮíĮĶ ì²ľì¹łë°±",
      "ĠìĿ¼ìĭŃìĺ¤ë§ĮíĮĶ ì²ľìľ¡ë°±",
      "ĠìĿ¼ìĭŃì¹łë§Į ìĿ¼ì²ľ",
      "ĠìĿ¼ìĭŃìĺ¤ë§Įì Ĥ¬ë°±",
      "ĠìĿ¼ìĭŃìĺ¤ë§Į íĮĶë°±",
      "ĠìĿ¼ìĭŃìĿ´ë§Įì ¹ł",
      "ĠìĿ¼ìĭŃìĺ¤ë§Įêµ¬ ì²ľìĿ´ë°±",
      "ĠìĿ¼ìĭŃìĤ¼ë§Į ìĿ´",
      "ĠìĿ¼ìĭŃìĺ¤ë§ĮíĮĶ ì²ľìĤ¬ë°±",
      "ĠìĿ¼ìĭŃìĺ¤ë§ĮíĮĶ ì²ľìĤ¼ë°±",
      "ĠìĿ¼ìĭŃìĺ¤ë§Įì ¹łë°±",
      "ĠìĿ¼ìĭŃì¹łë§Į ìĿ´",
      "ĠìĿ¼ìĭŃìĺ¤ë§Įì ľ¡ë°±",
      "ĠìĿ¼ìĭŃìĺ¤ë§ĮíĮĶ ì²ľìĿ´ë°±",
      "ĠìĿ¼ìĭŃìĺ¤ë§ĮíĮĶ ì²ľ",
      "ĠìĿ¼ìĭŃìĺ¤ë§Į êµ¬ë°±",
      "ĠìĿ¼ìĭŃìĺ¤ë§ĮìĿ¼ì²ľ ìĿ¼ë°±",
      "ĠìĿ¼ìĭŃìĿ¼ ë§Įêµ¬",
      "ĠìĿ¼ìĭŃìĺ¤ë§ĮíĮĶ ì²ľìĺ¤ë°±",
      "ĠìĿ¼ìĭŃìĺ¤ë§ĮìĿ¼ì²ľ ìĿ´ë°±",
      "ĠìĿ¼ìĭŃìĿ´ë§Įì Ĥ¬",
      "ĠìĿ¼ìĭŃìĺ¤ë§Įì¹ł ì²ľêµ¬ë°±",
      "ĠìĿ¼ìĭŃìĺ¤ë§ĮíĮĶ ì²ľìĿ¼ë°±",
      "ĠìĿ¼ìĭŃìĤ¬ë§Įêµ¬ ì²ľêµ¬ë°±",
      "ĠìĿ¼ìĭŃìĺ¤ë§Įêµ¬ ì²ľìĤ¬ë°±",
      "ĠìĿ¼ìĭŃìĺ¤ë§Įêµ¬ ì²ľìĺ¤ë°±",
      "ĠìĿ¼ìĭŃìĺ¤ë§Įìĺ¤ ì²ľìĿ¼ë°±",
      "ĠìĿ¼ìĭŃìĺ¤ë§Į ìĿ¼ë°±",
      "ĠìĿ¼ìĭŃìĺ¤ë§Įì ĺ¤ë°±",
      "ĠìĿ¼ìĭŃìĺ¤ë§Įêµ¬ ì²ľì¹łë°±",
      "ĠìĿ¼ìĭŃìĺ¤ë§Įêµ¬ ì²ľìĤ¼ë°±",
      "ĠìĿ¼ìĭŃìĺ¤ë§Į ìĿ´ë°±",
      "ĠìĿ¼ìĭŃë§Įì Ĥ¬",
      "ĠìĿ¼ìĭŃìĺ¤ë§ĮìĿ¼ì²ľì ľ¡ë°±",
      "ĠìĿ¼ìĭŃìĺ¤ë§Įìĺ¤ ì²ľìľ¡ë°±",
      "ĠìĿ¼ìĭŃìĺ¤ë§Įêµ¬ ì²ľêµ¬ë°±",
      "ĠìĿ¼ìĭŃìĺ¤ë§Įìĺ¤ ì²ľìĺ¤ë°±",
      "ĠìĿ¼ìĭŃìĺ¤ë§ĮìĤ¬ ì²ľíĮĶë°±",
      "ĠìĿ¼ìĭŃìĺ¤ë§Įêµ¬ ì²ľìľ¡ë°±",
      "ĠìĿ¼ìĭŃìĺ¤ë§Įì¹ł ì²ľìĿ´ë°±",
      "ĠìĿ¼ìĭŃìĺ¤ë§Įìĺ¤ ì²ľìĤ¬ë°±",
      "ĠìĿ¼ìĭŃìĺ¤ë§ĮìĿ¼ì²ľì ¹łë°±",
      "ĠìĿ¼ìĭŃ ë§Įêµ¬",
      "ĠìĿ¼ìĭŃìĺ¤ë§Įì Ĥ¼ë°±",
      "ĠìĿ¼ìĭŃìĺ¤ë§ĮìĿ¼ì²ľì Ĥ¬ë°±",
      "ĠìĿ¼ìĭŃìĺ¤ë§Įì¹ł ì²ľìľ¡ë°±",
      "ĠìĿ¼ìĭŃìĤ¬ë§Įìľ¡ ì²ľì¹łë°±",
      "ĠìĿ¼ìĭŃìĺ¤ë§ĮìĤ¼ ì²ľìľ¡ë°±",
      "ĠìĿ¼ìĭŃìĺ¤ë§Įìĺ¤ ì²ľìĿ´ë°±",
      "ĠìĿ¼ìĭŃìĺ¤ë§ĮìĿ¼ì²ľì ĺ¤ë°±",
      "ĠìĿ¼ìĭŃìĺ¤ë§ĮìĿ¼ì²ľì Ĥ¼ë°±",
      "ĠìĿ¼ìĭŃìĤ¬ë§Įìľ¡ ì²ľìľ¡ë°±",
      "ĠìĿ¼ìĭŃìĺ¤ë§ĮìĤ¬ ì²ľêµ¬ë°±",
      "ĠìĿ¼ìĭŃìĺ¤ë§Įì¹ł ì²ľíĮĶë°±",
      "ĠìĿ¼ìĭŃìĤ¬ë§Įêµ¬ ì²ľì¹łë°±",
      "ĠìĿ¼ìĭŃìĺ¤ë§Įì¹ł ì²ľìĺ¤ë°±",
      "ĠìĿ¼ìĭŃìĺ¤ë§Įì¹ł ì²ľ",
      "ĠìĿ¼ìĭŃìĺ¤ë§Įìĺ¤ ì²ľ",
      "ĠìĿ¼ìĭŃìĺ¤ë§Įìĺ¤ ì²ľìĤ¼ë°±",
      "ĠìĿ¼ìĭŃìĤ¬ë§Įêµ¬ ì²ľìĤ¼ë°±",
      "ĠìĿ¼ìĭŃìĺ¤ë§ĮìĿ´ ì²ľì¹łë°±",
      "ĠìĿ¼ìĭŃìĺ¤ë§Įìĺ¤ ì²ľêµ¬ë°±",
      "ĠìĿ¼ìĭŃìĺ¤ë§ĮìĿ¼ì²ľ íĮĶë°±",
      "ĠìĿ¼ìĭŃìĺ¤ë§Įìľ¡ ì²ľìĿ´ë°±",
      "ĠìĿ¼ìĭŃìĺ¤ë§Įêµ¬ ì²ľíĮĶë°±",
      "ĠìĿ¼ìĭŃìĺ¤ë§ĮìĤ¼ ì²ľìĤ¬ë°±",
      "ĠìĿ¼ìĭŃìĺ¤ë§Įìľ¡ ì²ľêµ¬ë°±",
      "ĠìĿ¼ìĭŃìĺ¤ë§Įìľ¡ ì²ľìľ¡ë°±",
      "ĠìĿ¼ìĭŃìĤ¬ë§Įêµ¬ ì²ľ",
      "ĠìĿ¼ìĭŃìĺ¤ë§Įì¹ł ì²ľìĤ¬ë°±",
      "ĠìĿ¼ìĭŃìĺ¤ë§Įìľ¡ ì²ľìĤ¬ë°±",
      "ĠìĿ¼ìĭŃìĤ¬ë§Įêµ¬ ì²ľìľ¡ë°±",
      "ĠìĿ¼ìĭŃìĺ¤ë§ĮìĿ´ ì²ľìĿ´ë°±",
      "ĠìĿ¼ìĭŃìĤ¬ë§Įêµ¬ ì²ľìĿ´ë°±",
      "ĠìĿ¼ìĭŃìĺ¤ë§ĮìĿ´ ì²ľìĤ¬ë°±",
      "ĠìĿ¼ìĭŃìĺ¤ë§Įìľ¡ ì²ľì¹łë°±",
      "ĠìĿ¼ìĭŃìĺ¤ë§Įìľ¡ ì²ľíĮĶë°±",
      "ĠìĿ¼ìĭŃìĺ¤ë§Įìĺ¤ ì²ľíĮĶë°±",
      "ĠìĿ¼ìĭŃìĤ¬ë§Įìľ¡ ì²ľìĿ´ë°±",
      "ĠìĿ¼ìĭŃìľ¡ë§Į ìĿ¼ë°±",
      "ĠìĿ¼ìĭŃìĺ¤ë§ĮìĿ´ ì²ľ",
      "ĠìĿ¼ìĭŃìĤ¬ë§ĮíĮĶ ì²ľ",
      "ĠìĿ¼ìĭŃìĤ¬ë§ĮíĮĶ ì²ľêµ¬ë°±",
      "ĠìĿ¼ìĭŃìĤ¬ë§Įêµ¬ ì²ľíĮĶë°±",
      "ĠìĿ¼ìĭŃìĤ¬ë§ĮíĮĶ ì²ľíĮĶë°±",
      "ĠìĿ¼ìĭŃìĺ¤ë§Įì¹ł ì²ľìĿ¼ë°±",
      "ĠìĿ¼ìĭŃìĺ¤ë§ĮìĤ¬ ì²ľì¹łë°±",
      "ĠìĿ¼ìĭŃìĺ¤ë§Įì¹ł ì²ľì¹łë°±",
      "ĠìĿ¼ìĭŃìĿ¼ë§Įì ĺ¤",
      "ĠìĿ¼ìĭŃìĤ¬ë§Įìľ¡ ì²ľìĺ¤ë°±",
      "ĠìĿ¼ìĭŃìľ¡ë§Į ìĿ´ë°±",
      "ĠìĿ¼ìĭŃìĤ¬ë§Įìľ¡ ì²ľìĤ¼ë°±",
      "ĠìĿ¼ìĭŃìĺ¤ë§Įì¹ł ì²ľìĤ¼ë°±",
      "ĠìĿ¼ìĭŃìĺ¤ë§Įìľ¡ ì²ľ",
      "ĠìĿ¼ìĭŃìĺ¤ë§ĮìĤ¼ ì²ľìĺ¤ë°±",
      "ĠìĿ¼ìĭŃìĺ¤ë§Įìľ¡ ì²ľìĺ¤ë°±",
      "ĠìĿ¼ìĭŃìĤ¼ë§Įìĺ¤ ì²ľ",
      "ĠìĿ¼ìĭŃìĤ¬ë§Įìľ¡ ì²ľìĿ¼ë°±",
      "ĠìĿ¼ìĭŃìĺ¤ë§ĮìĤ¬ ì²ľ",
      "ĠìĿ¼ìĭŃìĤ¬ë§Įêµ¬ ì²ľìĤ¬ë°±",
      "ĠìĿ¼ìĭŃìĺ¤ë§Įìĺ¤ ì²ľì¹łë°±",
      "ĠìĿ¼ìĭŃìĤ¼ë§ĮíĮĶ ì²ľ",
      "ĠìĿ¼ìĭŃìĤ¬ë§Įêµ¬ ì²ľìĿ¼ë°±",
      "ĠìĿ¼ìĭŃìĺ¤ë§Įìľ¡ ì²ľìĤ¼ë°±",
      "ĠìĿ¼ìĭŃìĤ¬ë§Įìľ¡ ì²ľíĮĶë°±",
      "ĠìĿ¼ìĭŃìĤ¼ë§ĮíĮĶ ì²ľìĿ´ë°±",
      "ĠìĿ¼ìĭŃìĤ¬ë§Įì¹ł ì²ľ",
      "ĠìĿ¼ìĭŃìĤ¬ë§ĮíĮĶ ì²ľìĺ¤ë°±",
      "ĠìĿ¼ìĭŃìĤ¬ë§ĮíĮĶ ì²ľìĤ¬ë°±",
      "ĠìĿ¼ìĭŃìĤ¬ë§ĮìĤ¼ ì²ľìĤ¼ë°±",
      "ĠìĿ¼ìĭŃìĤ¬ë§Įì¹ł ì²ľìľ¡ë°±",
      "ĠìĿ¼ìĭŃìĤ¬ë§Įì¹ł ì²ľìĤ¬ë°±",
      "ĠìĿ¼ìĭŃìĤ¬ë§Įêµ¬ ì²ľìĺ¤ë°±",
      "ĠìĿ¼ìĭŃìĺ¤ë§ĮìĤ¼ ì²ľíĮĶë°±",
      "ĠìĿ¼ìĭŃìĺ¤ë§ĮìĤ¬ ì²ľìĿ¼ë°±",
      "ĠìĿ¼ìĭŃìĺ¤ë§ĮìĿ´ ì²ľêµ¬ë°±",
      "ĠìĿ¼ìĭŃìĺ¤ë§ĮìĿ´ ì²ľìľ¡ë°±",
      "ĠìĿ¼ìĭŃìĤ¬ë§ĮíĮĶ ì²ľì¹łë°±",
      "ĠìĿ¼ìĭŃìĺ¤ë§ĮìĤ¼ ì²ľìĤ¼ë°±",
      "ĠìĿ¼ìĭŃìĺ¤ë§ĮìĿ´ ì²ľìĺ¤ë°±",
      "ĠìĿ¼ìĭŃìĤ¬ë§Įìľ¡ ì²ľìĤ¬ë°±",
      "ĠìĿ¼ìĭŃìĤ¬ë§Įì¹ł ì²ľìĺ¤ë°±",
      "ĠìĿ¼ìĭŃìĺ¤ë§Įìľ¡ ì²ľìĿ¼ë°±",
      "ĠìĿ¼ìĭŃìĤ¬ë§ĮíĮĶ ì²ľìľ¡ë°±",
      "ĠìĿ¼ìĭŃìĤ¬ë§ĮìĤ¬ ì²ľ",
      "ĠìĿ¼ìĭŃìĤ¬ë§Įì¹ł ì²ľì¹łë°±",
      "ĠìĿ¼ìĭŃìĤ¬ë§ĮìĤ¼ ì²ľêµ¬ë°±",
      "ĠìĿ¼ìĭŃìĤ¬ë§Įì¹ł ì²ľìĤ¼ë°±",
      "ĠìĿ¼ìĭŃìĤ¼ë§Įìĺ¤ ì²ľìĿ¼ë°±",
      "ĠìĿ¼ìĭŃìĤ¬ë§ĮìĤ¼ ì²ľ",
      "ĠìĿ¼ìĭŃìĤ¬ë§ĮìĤ¼ ì²ľìĤ¬ë°±",
      "ĠìĿ¼ìĭŃìĤ¼ë§Įì¹ł ì²ľìĺ¤ë°±",
      "ĠìĿ¼ìĭŃìĤ¬ë§ĮìĿ´ ì²ľêµ¬ë°±",
      "ĠìĿ¼ìĭŃìĤ¼ë§Įì¹ł ì²ľì¹łë°±",
      "ĠìĿ¼ìĭŃìĺ¤ë§ĮìĤ¼ ì²ľìĿ´ë°±",
      "ĠìĿ¼ìĭŃìľ¡ë§ĮìĿ´ ì²ľìĤ¬ë°±",
      "ĠìĿ¼ìĭŃìĺ¤ë§ĮìĤ¼ ì²ľêµ¬ë°±",
      "ĠìĿ¼ìĭŃìĤ¬ë§ĮìĤ¼ ì²ľìĿ´ë°±",
      "ĠìĿ¼ìĭŃìľ¡ë§Įìĺ¤ ì²ľìľ¡ë°±",
      "ĠìĿ¼ìĭŃìĺ¤ë§ĮìĤ¼ ì²ľì¹łë°±",
      "ĠìĿ¼ìĭŃìĺ¤ë§ĮìĤ¬ ì²ľìĤ¼ë°±",
      "ĠìĿ¼ìĭŃìĺ¤ë§ĮìĤ¬ ì²ľìľ¡ë°±",
      "ĠìĿ¼ìĭŃìĤ¬ë§Įìľ¡ ì²ľêµ¬ë°±",
      "ĠìĿ¼ìĭŃìľ¡ë§ĮìĿ¼ì²ľ êµ¬ë°±",
      "ĠìĿ¼ìĭŃìĺ¤ë§ĮìĿ´ ì²ľìĿ¼ë°±",
      "ĠìĿ¼ìĭŃìĤ¬ë§ĮìĤ¼ ì²ľìĿ¼ë°±",
      "ĠìĿ¼ìĭŃìĤ¬ë§ĮíĮĶ ì²ľìĤ¼ë°±",
      "ĠìĿ¼ìĭŃìľ¡ë§ĮìĿ¼ì²ľì ľ¡ë°±",
      "ĠìĿ¼ìĭŃìĺ¤ë§ĮìĿ´ ì²ľìĤ¼ë°±",
      "ĠìĿ¼ìĭŃìĤ¼ë§Įì¹ł ì²ľíĮĶë°±",
      "ĠìĿ¼ìĭŃìĤ¬ë§Įì¹ł ì²ľìĿ¼ë°±",
      "ĠìĿ¼ìĭŃìĤ¬ë§ĮìĤ¬ ì²ľìĤ¼ë°±",
      "ĠìĿ¼ìĭŃìĤ¼ë§Įìĺ¤ ì²ľìľ¡ë°±",
      "ĠìĿ¼ìĭŃìĿ´ë§Įì ĺ¤",
      "ĠìĿ¼ìĭŃìĤ¬ë§ĮìĿ´ ì²ľìĺ¤ë°±",
      "ĠìĿ¼ìĭŃìĺ¤ë§ĮìĿ´ ì²ľíĮĶë°±",
      "ĠìĿ¼ìĭŃìľ¡ë§Įì Ĥ¬ë°±",
      "ĠìĿ¼ìĭŃìľ¡ë§Įìĺ¤ ì²ľêµ¬ë°±",
      "ĠìĿ¼ìĭŃìĺ¤ë§ĮìĿ¼ì²ľ êµ¬ë°±",
      "ĠìĿ¼ìĭŃìĤ¼ë§Įêµ¬ ì²ľìĿ´ë°±",
      "ĠìĿ¼ìĭŃìĺ¤ë§ĮìĤ¬ ì²ľìĿ´ë°±",
      "ĠìĿ¼ìĭŃìľ¡ë§Įì ¹łë°±",
      "ĠìĿ¼ìĭŃìĺ¤ë§ĮìĤ¼ ì²ľ",
      "ĠìĿ¼ìĭŃìĤ¬ë§ĮíĮĶ ì²ľìĿ´ë°±",
      "ĠìĿ¼ìĭŃìĤ¬ë§ĮíĮĶ ì²ľìĿ¼ë°±",
      "ĠìĿ¼ìĭŃìĤ¬ë§Įì¹ł ì²ľìĿ´ë°±",
      "ĠìĿ¼ìĭŃìĤ¼ë§Įì¹ł ì²ľìĤ¼ë°±",
      "ĠìĿ¼ìĭŃìĤ¬ë§ĮìĤ¬ ì²ľìĿ´ë°±",
      "ĠìĿ¼ìĭŃìĤ¬ë§Įì¹ł ì²ľêµ¬ë°±",
      "ĠìĿ¼ìĭŃìĤ¬ë§Įìľ¡ ì²ľ",
      "ĠìĿ¼ìĭŃìĤ¬ë§ĮìĤ¼ ì²ľíĮĶë°±",
      "ĠìĿ¼ìĭŃìľ¡ë§ĮìĿ´ ì²ľ",
      "ĠìĿ¼ìĭŃë§Įì¹ł ì²ľìĤ¼ë°±",
      "ĠìĿ¼ìĭŃìľ¡ë§ĮìĿ¼ì²ľ ìĿ´ë°±",
      "ĠìĿ¼ìĭŃìĤ¼ë§Įì¹ł ì²ľ",
      "ĠìĿ¼ìĭŃìľ¡ë§ĮìĿ¼ì²ľì ĺ¤ë°±",
      "ĠìĿ¼ìĭŃìĤ¼ë§ĮìĤ¬ ì²ľìľ¡ë°±",
      "ĠìĿ¼ìĭŃìĤ¼ë§Į ìĿ¼ì²ľ",
      "ĠìĿ¼ìĭŃìľ¡ë§ĮìĿ¼ì²ľì Ĥ¬ë°±",
      "ĠìĿ¼ìĭŃìĤ¼ë§Įì¹ł ì²ľìľ¡ë°±",
      "ĠìĿ¼ìĭŃìĤ¬ë§ĮìĿ´ ì²ľì¹łë°±",
      "ĠìĿ¼ìĭŃìľ¡ë§Įì Ĥ¼ë°±",
      "ĠìĿ¼ìĭŃìĤ¬ë§Įì¹ł ì²ľíĮĶë°±",
      "ĠìĿ¼ìĭŃìĤ¼ë§Įìĺ¤ ì²ľìĺ¤ë°±",
      "ĠìĿ¼ìĭŃë§Įì¹ł ì²ľìĤ¬ë°±",
      "ĠìĿ¼ìĭŃìĤ¼ë§Įìĺ¤ ì²ľìĤ¼ë°±",
      "ĠìĿ¼ìĭŃìĤ¼ë§ĮíĮĶ ì²ľìĤ¼ë°±",
      "ĠìĿ¼ìĭŃìĤ¼ë§ĮíĮĶ ì²ľìĿ¼ë°±",
      "ĠìĿ¼ìĭŃìĤ¼ë§Įì¹ł ì²ľêµ¬ë°±",
      "ĠìĿ¼ìĭŃìľ¡ë§Įìĺ¤ ì²ľíĮĶë°±",
      "ĠìĿ¼ìĭŃìľ¡ë§ĮìĿ´ ì²ľìĿ´ë°±",
      "ĠìĿ¼ìĭŃë§Įì¹ł ì²ľìĺ¤ë°±",
      "ĠìĿ¼ìĭŃìĿ´ë§Į ìĿ´",
      "ĠìĿ¼ìĭŃìľ¡ë§ĮìĤ¼ ì²ľíĮĶë°±",
      "ĠìĿ¼ìĭŃìľ¡ë§Įìľ¡ ì²ľìĤ¬ë°±",
      "ĠìĿ¼ìĭŃìĤ¼ë§Įêµ¬ ì²ľìĿ¼ë°±",
      "ĠìĿ¼ìĭŃìĤ¼ë§Įìľ¡ ì²ľìĤ¬ë°±",
      "ĠìĿ¼ìĭŃë§Įì¹ł ì²ľìĿ¼ë°±",
      "ĠìĿ¼ìĭŃìĤ¬ë§ĮìĤ¬ ì²ľìĿ¼ë°±",
      "ĠìĿ¼ìĭŃìĤ¼ë§Įìľ¡ ì²ľìĤ¼ë°±",
      "ĠìĿ¼ìĭŃìľ¡ë§Įìĺ¤ ì²ľìĤ¬ë°±",
      "ĠìĿ¼ìĭŃë§Įì¹ł ì²ľìĿ´ë°±",
      "ĠìĿ¼ìĭŃìĤ¼ë§Įìľ¡ ì²ľìĺ¤ë°±",
      "ĠìĿ¼ìĭŃìĤ¼ë§Įìľ¡ ì²ľìľ¡ë°±",
      "ĠìĿ¼ìĭŃìľ¡ë§ĮíĮĶ ì²ľìĺ¤ë°±",
      "ĠìĿ¼ìĭŃìľ¡ë§ĮìĿ´ ì²ľêµ¬ë°±",
      "ĠìĿ¼ìĭŃìľ¡ë§ĮìĿ¼ì²ľ íĮĶë°±",
      "ĠìĿ¼ìĭŃìľ¡ë§Į íĮĶë°±",
      "ĠìĿ¼ìĭŃìĤ¼ë§ĮíĮĶ ì²ľìĤ¬ë°±",
      "ĠìĿ¼ìĭŃìĤ¼ë§ĮìĤ¬ ì²ľêµ¬ë°±",
      "ĠìĿ¼ìĭŃìľ¡ë§Įìĺ¤ ì²ľ",
      "ĠìĿ¼ìĭŃìĤ¼ë§Įêµ¬ ì²ľ",
      "ĠìĿ¼ìĭŃìĤ¼ë§Įì¹ł ì²ľìĤ¬ë°±",
      "ĠìĿ¼ìĭŃìĤ¼ë§Įìľ¡ ì²ľ",
      "ĠìĿ¼ìĭŃìĤ¼ë§ĮìĤ¬ ì²ľìĤ¬ë°±",
      "ĠìĿ¼ìĭŃìĺ¤ë§ĮìĤ¬ ì²ľìĺ¤ë°±",
      "ĠìĿ¼ìĭŃë§Įì¹ł ì²ľ",
      "ĠìĿ¼ìĭŃìĤ¬ë§ĮìĤ¬ ì²ľìĤ¬ë°±",
      "ĠìĿ¼ìĭŃìĤ¬ë§ĮìĤ¬ ì²ľíĮĶë°±",
      "ĠìĿ¼ìĭŃìĤ¼ë§Į ìĿ¼ì²ľì",
      "ĠìĿ¼ìĭŃìľ¡ë§ĮìĿ¼ì²ľì Ĥ¼ë°±",
      "ĠìĿ¼ìĭŃìĤ¼ë§Įìľ¡ ì²ľêµ¬ë°±",
      "ĠìĿ¼ìĭŃë§Įì¹ł ì²ľì¹łë°±",
      "ĠìĿ¼ìĭŃìĤ¼ë§Įìĺ¤ ì²ľìĤ¬ë°±",
      "ĠìĿ¼ìĭŃìĤ¬ë§ĮìĤ¼ ì²ľìľ¡ë°±",
      "ĠìĿ¼ìĭŃìĤ¼ë§Įì¹ł ì²ľìĿ¼ë°±",
      "ĠìĿ¼ìĭŃìĺ¤ë§ĮìĤ¼ ì²ľìĿ¼ë°±",
      "ĠìĿ¼ìĭŃìľ¡ë§Įìĺ¤ ì²ľìĺ¤ë°±",
      "ĠìĿ¼ìĭŃìĤ¼ë§Įìĺ¤ ì²ľìĿ´ë°±",
      "ĠìĿ¼ìĭŃìľ¡ë§ĮìĤ¼ ì²ľ",
      "ĠìĿ¼ìĭŃìľ¡ë§ĮìĤ¼ ì²ľìĿ¼ë°±",
      "ĠìĿ¼ìĭŃìĿ´ë§Įì Ĥ¼",
      "ĠìĿ¼ìĭŃìĤ¬ë§Įìĺ¤ ì²ľìľ¡ë°±",
      "ĠìĿ¼ìĭŃìľ¡ë§Įì ľ¡ë°±",
      "ĠìĿ¼ìĭŃìľ¡ë§ĮìĤ¼ ì²ľìľ¡ë°±",
      "ĠìĿ¼ìĭŃìĤ¬ë§ĮìĤ¬ ì²ľìĺ¤ë°±",
      "ĠìĿ¼ìĭŃìľ¡ë§ĮìĿ¼ì²ľì ¹łë°±",
      "ĠìĿ¼ìĭŃìĤ¼ë§Įìĺ¤ ì²ľì¹łë°±",
      "ĠìĿ¼ìĭŃìĤ¬ë§Įìĺ¤ ì²ľ",
      "ĠìĿ¼ìĭŃë§Įì¹ł ì²ľíĮĶë°±",
      "ĠìĿ¼ìĭŃìĤ¼ë§ĮìĤ¬ ì²ľíĮĶë°±",
      "ĠìĿ¼ìĭŃìĤ¬ë§ĮìĿ´ ì²ľìľ¡ë°±",
      "ĠìĿ¼ìĭŃìľ¡ë§Įìĺ¤ ì²ľìĤ¼ë°±",
      "ĠìĿ¼ìĭŃìľ¡ë§ĮíĮĶ ì²ľìľ¡ë°±",
      "ĠìĿ¼ìĭŃìĤ¼ë§Įìĺ¤ ì²ľêµ¬ë°±",
      "ĠìĿ¼ìĭŃìľ¡ë§ĮíĮĶ ì²ľêµ¬ë°±",
      "ĠìĿ¼ìĭŃìľ¡ë§ĮìĿ´ ì²ľìĿ¼ë°±",
      "ĠìĿ¼ìĭŃìĤ¬ë§ĮìĿ¼ì²ľ ìĿ´ë°±",
      "ĠìĿ¼ìĭŃìľ¡ë§Į êµ¬ë°±",
      "ĠìĿ¼ìĭŃìĺ¤ë§ĮìĤ¬ ì²ľìĤ¬ë°±",
      "ĠìĿ¼ìĭŃìľ¡ë§ĮìĤ¼ ì²ľìĿ´ë°±",
      "ĠìĿ¼ìĭŃìĤ¼ë§ĮíĮĶ ì²ľì¹łë°±",
      "ĠìĿ¼ìĭŃë§Įì¹ł ì²ľìľ¡ë°±",
      "ĠìĿ¼ìĭŃìĤ¼ë§ĮìĤ¬ ì²ľì¹łë°±",
      "ĠìĿ¼ìĭŃìĤ¬ë§Įìĺ¤ ì²ľêµ¬ë°±",
      "ĠìĿ¼ìĭŃë§Įìľ¡ ì²ľêµ¬ë°±",
      "ĠìĿ¼ìĭŃìľ¡ë§ĮíĮĶ ì²ľì¹łë°±",
      "ĠìĿ¼ìĭŃìľ¡ë§ĮíĮĶ ì²ľ",
      "ĠìĿ¼ìĭŃìĤ¬ë§ĮìĤ¬ ì²ľêµ¬ë°±",
      "ĠìĿ¼ìĭŃìĤ¼ë§Įìľ¡ ì²ľìĿ´ë°±",
      "ĠìĿ¼ìĭŃìĤ¬ë§ĮìĿ¼ì²ľ êµ¬ë°±",
      "ĠìĿ¼ìĭŃìĤ¬ë§Įìĺ¤ ì²ľíĮĶë°±",
      "ĠìĿ¼ìĭŃìľ¡ë§Įìľ¡ ì²ľ",
      "ĠìĿ¼ìĭŃìĤ¼ë§Įêµ¬ ì²ľìĤ¼ë°±",
      "ĠìĿ¼ìĭŃìľ¡ë§Įì¹ł ì²ľ",
      "ĠìĿ¼ìĭŃìĤ¬ë§Įìĺ¤ ì²ľìĺ¤ë°±",
      "ĠìĿ¼ìĭŃìľ¡ë§Įìľ¡ ì²ľì¹łë°±",
      "ĠìĿ¼ìĭŃìľ¡ë§Įìĺ¤ ì²ľìĿ´ë°±",
      "ĠìĿ¼ìĭŃìĤ¬ë§Įìĺ¤ ì²ľì¹łë°±",
      "ĠìĿ¼ìĭŃìľ¡ë§ĮìĤ¬ ì²ľíĮĶë°±",
      "ĠìĿ¼ìĭŃìĤ¬ë§ĮìĿ¼ì²ľì ľ¡ë°±",
      "ĠìĿ¼ìĭŃìľ¡ë§ĮíĮĶ ì²ľìĤ¼ë°±",
      "ĠìĿ¼ìĭŃìľ¡ë§Įìĺ¤ ì²ľì¹łë°±",
      "ĠìĿ¼ìĭŃìľ¡ë§Įì¹ł ì²ľì¹łë°±",
      "ĠìĿ¼ìĭŃìľ¡ë§Įìľ¡ ì²ľìĺ¤ë°±",
      "ĠìĿ¼ìĭŃìĤ¬ë§ĮìĿ´ ì²ľìĤ¼ë°±",
      "ĠìĿ¼ìĭŃìĤ¼ë§Įìľ¡ ì²ľì¹łë°±",
      "ĠìĿ¼ìĭŃìĤ¼ë§ĮìĤ¬ ì²ľìĺ¤ë°±",
      "ĠìĿ¼ìĭŃìĤ¬ë§Įìĺ¤ ì²ľìĤ¼ë°±",
      "ĠìĿ¼ìĭŃìľ¡ë§Įêµ¬ ì²ľ",
      "ĠìĿ¼ìĭŃìľ¡ë§ĮìĿ´ ì²ľì¹łë°±",
      "ĠìĿ¼ìĭŃìĤ¬ë§ĮìĿ¼ì²ľì ¹łë°±",
      "ĠìĿ¼ìĭŃìľ¡ë§ĮìĿ¼ì²ľ ìĿ¼ë°±",
      "ĠìĿ¼ìĭŃìľ¡ë§Įêµ¬ ì²ľêµ¬ë°±",
      "ĠìĿ¼ìĭŃìĤ¼ë§ĮíĮĶ ì²ľíĮĶë°±",
      "ĠìĿ¼ìĭŃìľ¡ë§Įìľ¡ ì²ľìĿ´ë°±",
      "ĠìĿ¼ìĭŃìľ¡ë§Įìľ¡ ì²ľìĤ¼ë°±",
      "ĠìĿ¼ìĭŃìľ¡ë§ĮìĤ¼ ì²ľì¹łë°±",
      "ĠìĿ¼ìĭŃìľ¡ë§ĮìĿ´ ì²ľìľ¡ë°±",
      "ĠìĿ¼ìĭŃë§ĮíĮĶ ì²ľìľ¡ë°±",
      "ĠìĿ¼ìĭŃìĤ¼ë§Įì¹ł ì²ľìĿ´ë°±",
      "ĠìĿ¼ìĭŃìĤ¼ë§Įìľ¡ ì²ľìĿ¼ë°±",
      "ĠìĿ¼ìĭŃìľ¡ë§Įìľ¡ ì²ľìľ¡ë°±",
      "ĠìĿ¼ìĭŃìľ¡ë§Įì ĺ¤ë°±",
      "ĠìĿ¼ìĭŃìľ¡ë§ĮìĤ¼ ì²ľìĤ¼ë°±",
      "ĠìĿ¼ìĭŃìľ¡ë§Įêµ¬ ì²ľíĮĶë°±",
      "ĠìĿ¼ìĭŃìĤ¬ë§ĮìĤ¼ ì²ľìĺ¤ë°±",
      "ĠìĿ¼ìĭŃìĤ¬ë§ĮìĿ´ ì²ľìĤ¬ë°±",
      "ĠìĿ¼ìĭŃìľ¡ë§ĮìĤ¬ ì²ľ",
      "ĠìĿ¼ìĭŃìĿ´ë§ĮíĮĶ ì²ľíĮĶë°±",
      "ĠìĿ¼ìĭŃìľ¡ë§ĮìĤ¬ ì²ľìĤ¬ë°±",
      "ĠìĿ¼ìĭŃìĤ¬ë§ĮìĿ¼ì²ľ íĮĶë°±",
      "ĠìĿ¼ìĭŃìľ¡ë§Įìľ¡ ì²ľêµ¬ë°±",
      "ĠìĿ¼ìĭŃìľ¡ë§Įìľ¡ ì²ľíĮĶë°±",
      "ĠìĿ¼ìĭŃìĤ¼ë§Įìĺ¤ ì²ľíĮĶë°±",
      "ĠìĿ¼ìĭŃìľ¡ë§ĮíĮĶ ì²ľíĮĶë°±",
      "ĠìĿ¼ìĭŃìĤ¬ë§ĮìĿ´ ì²ľìĿ´ë°±",
      "ĠìĿ¼ìĭŃìĤ¼ë§ĮìĤ¬ ì²ľìĿ´ë°±",
      "ĠìĿ¼ìĭŃìľ¡ë§ĮìĿ´ ì²ľíĮĶë°±",
      "ĠìĿ¼ìĭŃìĤ¬ë§ĮìĿ´ ì²ľìĿ¼ë°±",
      "ĠìĿ¼ìĭŃë§ĮíĮĶ ì²ľìĤ¬ë°±",
      "ĠìĿ¼ìĭŃìĤ¼ë§ĮìĤ¼ ì²ľíĮĶë°±",
      "ĠìĿ¼ìĭŃì¹łë§Įì ĺ¤ë°±",
      "ĠìĿ¼ìĭŃìĤ¼ë§ĮíĮĶ ì²ľêµ¬ë°±",
      "ĠìĿ¼ìĭŃìĤ¬ë§Įìĺ¤ ì²ľìĿ´ë°±",
      "ĠìĿ¼ìĭŃìĿ¼ë§Įì¹ł ì²ľì¹łë°±",
      "ĠìĿ¼ìĭŃìĤ¼ë§Įêµ¬ ì²ľìĺ¤ë°±",
      "ĠìĿ¼ìĭŃìľ¡ë§Įìľ¡ ì²ľìĿ¼ë°±",
      "ĠìĿ¼ìĭŃìĤ¼ë§Įêµ¬ ì²ľìĤ¬ë°±",
      "ĠìĿ¼ìĭŃìĿ¼ ë§Į",
      "ĠìĿ¼ìĭŃë§Įì Ĥ¼",
      "ĠìĿ¼ìĭŃìľ¡ë§ĮíĮĶ ì²ľìĿ´ë°±",
      "ĠìĿ¼ìĭŃìĤ¬ë§ĮìĤ¬ ì²ľìľ¡ë°±",
      "ĠìĿ¼ìĭŃìľ¡ë§ĮìĤ¬ ì²ľêµ¬ë°±",
      "ĠìĿ¼ìĭŃë§Įìľ¡ ì²ľìľ¡ë°±",
      "ĠìĿ¼ìĭŃìľ¡ë§ĮìĤ¬ ì²ľìĤ¼ë°±",
      "ĠìĿ¼ìĭŃìĤ¬ë§ĮìĿ´ ì²ľíĮĶë°±",
      "ĠìĿ¼ìĭŃì¹łë§ĮìĿ¼ì²ľì Ĥ¼ë°±",
      "ĠìĿ¼ìĭŃìĤ¬ë§ĮìĤ¼ ì²ľì¹łë°±",
      "ĠìĿ¼ìĭŃìľ¡ë§Įì¹ł ì²ľìĿ´ë°±",
      "ĠìĿ¼ìĭŃìĤ¼ë§ĮíĮĶ ì²ľìľ¡ë°±",
      "ĠìĿ¼ìĭŃìľ¡ë§Įì¹ł ì²ľìĺ¤ë°±",
      "ĠìĿ¼ìĭŃìĤ¬ë§Įìĺ¤ ì²ľìĤ¬ë°±",
      "ĠìĿ¼ìĭŃìľ¡ë§ĮìĿ´ ì²ľìĤ¼ë°±",
      "ĠìĿ¼ìĭŃìľ¡ë§ĮíĮĶ ì²ľìĤ¬ë°±",
      "ĠìĿ¼ìĭŃì¹łë§ĮìĿ¼ì²ľì Ĥ¬ë°±",
      "ĠìĿ¼ìĭŃìĤ¬ë§ĮìĿ¼ì²ľì ĺ¤ë°±",
      "ĠìĿ¼ìĭŃìĤ¼ë§ĮìĤ¬ ì²ľìĤ¼ë°±",
      "ĠìĿ¼ìĭŃë§Įì¹ł ì²ľêµ¬ë°±",
      "ĠìĿ¼ìĭŃìľ¡ë§ĮìĤ¬ ì²ľìĿ¼ë°±",
      "ĠìĿ¼ìĭŃìĤ¬ë§Į êµ¬ë°±",
      "ĠìĿ¼ìĭŃìĤ¼ë§Įêµ¬ ì²ľì¹łë°±",
      "ĠìĿ¼ìĭŃìľ¡ë§Įìĺ¤ ì²ľìĿ¼ë°±",
      "ĠìĿ¼ìĭŃë§ĮíĮĶ ì²ľìĺ¤ë°±",
      "ĠìĿ¼ìĭŃìľ¡ë§Įêµ¬ ì²ľìĿ´ë°±",
      "ĠìĿ¼ìĭŃìĤ¬ë§ĮìĤ¬ ì²ľì¹łë°±",
      "ĠìĿ¼ìĭŃìĤ¬ë§Įìĺ¤ ì²ľìĿ¼ë°±",
      "ĠìĿ¼ìĭŃìľ¡ë§ĮìĤ¼ ì²ľêµ¬ë°±",
      "ĠìĿ¼ìĭŃìĿ¼ë§Įì¹ł ì²ľíĮĶë°±",
      "ĠìĿ¼ìĭŃìľ¡ë§ĮìĤ¬ ì²ľìĿ´ë°±",
      "ĠìĿ¼ìĭŃìľ¡ë§ĮìĤ¼ ì²ľìĺ¤ë°±",
      "ĠìĿ¼ìĭŃìľ¡ë§Įì¹ł ì²ľíĮĶë°±",
      "ĠìĿ¼ìĭŃìľ¡ë§Įì¹ł ì²ľìĤ¼ë°±",
      "ĠìĿ¼ìĭŃìĤ¬ë§ĮìĿ¼ì²ľì Ĥ¼ë°±",
      "ĠìĿ¼ìĭŃìľ¡ë§Įì¹ł ì²ľêµ¬ë°±",
      "ĠìĿ¼ìĭŃìĤ¬ë§ĮìĿ´ ì²ľ",
      "ĠìĿ¼ìĭŃìĿ´ë§ĮíĮĶ ì²ľìľ¡ë°±",
      "ĠìĿ¼ìĭŃë§ĮíĮĶ ì²ľìĤ¼ë°±",
      "ĠìĿ¼ìĭŃì¹łë§ĮìĿ¼ì²ľì ĺ¤ë°±",
      "ĠìĿ¼ìĭŃìľ¡ë§ĮìĤ¼ ì²ľìĤ¬ë°±",
      "ĠìĿ¼ìĭŃìľ¡ë§ĮìĤ¬ ì²ľìľ¡ë°±",
      "ĠìĿ¼ìĭŃìľ¡ë§Įì¹ł ì²ľìĿ¼ë°±",
      "ĠìĿ¼ìĭŃìľ¡ë§ĮìĤ¬ ì²ľì¹łë°±",
      "ĠìĿ¼ìĭŃìľ¡ë§Įêµ¬ ì²ľìľ¡ë°±",
      "ĠìĿ¼ìĭŃìĤ¼ë§Įìľ¡ ì²ľíĮĶë°±",
      "ĠìĿ¼ìĭŃìĤ¼ë§ĮíĮĶ ì²ľìĺ¤ë°±",
      "ĠìĿ¼ìĭŃìĿ´ë§ĮíĮĶ ì²ľêµ¬ë°±",
      "ĠìĿ¼ìĭŃìľ¡ë§ĮìĤ¬ ì²ľìĺ¤ë°±",
      "ĠìĿ¼ìĭŃìĿ¼ë§Įì¹ł ì²ľìľ¡ë°±",
      "ĠìĿ¼ìĭŃì¹łë§Įì Ĥ¬ë°±",
      "ĠìĿ¼ìĭŃë§Įìľ¡ ì²ľíĮĶë°±",
      "ĠìĿ¼ìĭŃë§ĮíĮĶ ì²ľíĮĶë°±",
      "ĠìĿ¼ìĭŃìľ¡ë§Įêµ¬ ì²ľìĤ¬ë°±",
      "ĠìĿ¼ìĭŃìĤ¼ë§ĮìĤ¬ ì²ľ",
      "ĠìĿ¼ìĭŃìĤ¼ë§ĮìĤ¼ ì²ľì¹łë°±",
      "ĠìĿ¼ìĭŃìĤ¼ë§Įêµ¬ ì²ľìľ¡ë°±",
      "ĠìĿ¼ìĭŃìĿ´ë§Į ìĿ¼ì²ľ",
      "ĠìĿ¼ìĭŃìľ¡ë§Įêµ¬ ì²ľì¹łë°±",
      "ĠìĿ¼ìĭŃìľ¡ë§Įì¹ł ì²ľìĤ¬ë°±",
      "ĠìĿ¼ìĭŃìĿ¼ë§ĮíĮĶ ì²ľìĤ¼ë°±",
      "ĠìĿ¼ìĭŃì¹łë§Į ìĿ´ë°±",
      "ĠìĿ¼ìĭŃë§ĮíĮĶ ì²ľêµ¬ë°±",
      "ĠìĿ¼ìĭŃë§Įìľ¡ ì²ľì¹łë°±",
      "ĠìĿ¼ìĭŃë§ĮíĮĶ ì²ľì¹łë°±",
      "ĠìĿ¼ìĭŃìĿ¼ë§Įìľ¡ ì²ľêµ¬ë°±",
      "ĠìĿ¼ìĭŃì¹łë§Įì Ĥ¼ë°±",
      "ĠìĿ¼ìĭŃìĤ¼ë§ĮìĤ¼ ì²ľêµ¬ë°±",
      "ĠìĿ¼ìĭŃë§Įìľ¡ ì²ľìĤ¬ë°±",
      "ĠìĿ¼ìĭŃìĤ¬ë§ĮìĿ¼ì²ľì Ĥ¬ë°±",
      "ĠìĿ¼ìĭŃìĿ´ë§Įêµ¬ ì²ľ",
      "ĠìĿ¼ìĭŃìľ¡ë§Įêµ¬ ì²ľìĿ¼ë°±",
      "ĠìĿ¼ìĭŃìĤ¬ë§ĮìĿ¼ì²ľ ìĿ¼ë°±",
      "ĠìĿ¼ìĭŃìľ¡ë§ĮìĿ´ ì²ľìĺ¤ë°±",
      "ĠìĿ¼ìĭŃìĤ¼ë§Įêµ¬ ì²ľíĮĶë°±",
      "ĠìĿ¼ìĭŃìľ¡ë§Įì¹ł ì²ľìľ¡ë°±",
      "ĠìĿ¼ìĭŃìĿ¼ë§Įì¹ł ì²ľ",
      "ĠìĿ¼ìĭŃìĤ¼ë§ĮìĤ¬ ì²ľìĿ¼ë°±",
      "ĠìĿ¼ìĭŃìľ¡ë§ĮíĮĶ ì²ľìĿ¼ë°±",
      "ĠìĿ¼ìĭŃì¹łë§ĮìĿ¼ì²ľ ìĿ´ë°±",
      "ĠìĿ¼ìĭŃì¹łë§Į íĮĶë°±",
      "ĠìĿ¼ìĭŃì¹łë§ĮìĿ¼ì²ľì ¹łë°±",
      "ĠìĿ¼ìĭŃìĤ¼ë§ĮìĤ¼ ì²ľìľ¡ë°±",
      "ĠìĿ¼ìĭŃìľ¡ë§Įêµ¬ ì²ľìĤ¼ë°±",
      "ĠìĿ¼ìĭŃìĤ¬ë§Įì ¹łë°±",
      "ĠìĿ¼ìĭŃë§Įìľ¡ ì²ľìĺ¤ë°±",
      "ĠìĿ¼ìĭŃì¹łë§ĮìĿ¼ì²ľ ìĿ¼ë°±",
      "ĠìĿ¼ìĭŃìĿ¼ë§Įì¹ł ì²ľìĤ¼ë°±",
      "ĠìĿ¼ìĭŃìĿ¼ë§Įì¹ł ì²ľìĿ´ë°±",
      "ĠìĿ¼ìĭŃìĿ´ë§ĮíĮĶ ì²ľìĺ¤ë°±",
      "ĠìĿ¼ìĭŃìľ¡ë§Įêµ¬ ì²ľìĺ¤ë°±",
      "ĠìĿ¼ìĭŃìĿ¼ë§ĮíĮĶ ì²ľìĿ´ë°±",
      "ĠìĿ¼ìĭŃìĿ¼ë§Įì¹ł ì²ľêµ¬ë°±",
      "ĠìĿ¼ìĭŃë§Įêµ¬ ì²ľ",
      "ĠìĿ¼ìĭŃìĤ¬ë§Į ìĿ´ë°±",
      "ĠìĿ¼ìĭŃì¹łë§ĮìĿ¼ì²ľ êµ¬ë°±",
      "ĠìĿ¼ìĭŃì¹łë§ĮìĿ¼ì²ľ íĮĶë°±",
      "ĠìĿ¼ìĭŃìĿ¼ë§Įì¹ł ì²ľìĿ¼ë°±",
      "ĠìĿ¼ìĭŃë§ĮíĮĶ ì²ľ",
      "ĠìĿ¼ìĭŃì¹łë§ĮìĿ´ ì²ľìĿ´ë°±",
      "ĠìĿ¼ìĭŃë§ĮíĮĶ ì²ľìĿ´ë°±",
      "ĠìĿ¼ìĭŃìĤ¬ë§Į íĮĶë°±",
      "ĠìĿ¼ìĭŃìĿ´ë§ĮíĮĶ ì²ľì¹łë°±",
      "ĠìĿ¼ìĭŃìĤ¬ë§Įì Ĥ¼ë°±",
      "ĠìĿ¼ìĭŃì¹łë§Į êµ¬ë°±",
      "ĠìĿ¼ìĭŃìĿ´ë§Įêµ¬ ì²ľìĿ¼ë°±",
      "ĠìĿ¼ìĭŃìĿ¼ë§ĮíĮĶ ì²ľ",
      "ĠìĿ¼ìĭŃìĿ¼ë§Įìľ¡ ì²ľìĤ¼ë°±",
      "ĠìĿ¼ìĭŃìĤ¬ë§Įì ľ¡ë°±",
      "ĠìĿ¼ìĭŃìĿ´ë§ĮíĮĶ ì²ľìĤ¬ë°±",
      "ĠìĿ¼ìĭŃìĿ´ë§Įì ľ¡ë°±",
      "ĠìĿ¼ìĭŃìĿ¼ë§Įì¹ł ì²ľìĤ¬ë°±",
      "ĠìĿ¼ìĭŃìĿ¼ë§ĮíĮĶ ì²ľìĤ¬ë°±",
      "ĠìĿ¼ìĭŃìĿ¼ë§Įìľ¡ ì²ľíĮĶë°±",
      "ĠìĿ¼ìĭŃìĿ¼ë§ĮíĮĶ ì²ľìĺ¤ë°±",
      "ĠìĿ¼ìĭŃìĿ¼ë§Įìľ¡ ì²ľìĿ´ë°±",
      "ĠìĿ¼ìĭŃìĤ¬ë§Įì Ĥ¬ë°±",
      "ĠìĿ¼ìĭŃì¹łë§Įì ¹łë°±",
      "ĠìĿ¼ìĭŃìĿ´ë§ĮíĮĶ ì²ľìĤ¼ë°±",
      "ĠìĿ¼ìĭŃë§Įìĺ¤ ì²ľìĿ´ë°±",
      "ĠìĿ¼ìĭŃìĿ¼ë§Įì¹ł ì²ľìĺ¤ë°±",
      "ĠìĿ¼ìĭŃì¹łë§ĮìĿ´ ì²ľ",
      "ĠìĿ¼ìĭŃìĿ´ë§Įì¹ł ì²ľì¹łë°±",
      "ĠìĿ¼ìĭŃì¹łë§Įì ľ¡ë°±",
      "ĠìĿ¼ìĭŃìĿ´ë§Įì ľ¡",
      "ĠìĿ¼ìĭŃìĿ´ë§Įêµ¬ ì²ľêµ¬ë°±",
      "ĠìĿ¼ìĭŃìĿ¼ë§ĮíĮĶ ì²ľìĿ¼ë°±",
      "ĠìĿ¼ìĭŃìĤ¬ë§Įì ĺ¤ë°±",
      "ĠìĿ¼ìĭŃë§Įìĺ¤ ì²ľìĤ¼ë°±",
      "ĠìĿ¼ìĭŃìĤ¼ë§Įì ĺ¤ë°±",
      "ĠìĿ¼ìĭŃë§ĮìĤ¬ ì²ľíĮĶë°±",
      "ĠìĿ¼ìĭŃì¹łë§Į ìĿ¼ë°±",
      "ĠìĿ¼ìĭŃìĤ¼ë§ĮìĤ¼ ì²ľìĺ¤ë°±",
      "ĠìĿ¼ìĭŃìĤ¼ë§Įêµ¬ ì²ľêµ¬ë°±",
      "ĠìĿ¼ìĭŃìĿ´ë§ĮíĮĶ ì²ľìĿ¼ë°±",
      "ĠìĿ¼ìĭŃìĤ¼ë§ĮìĿ¼ì²ľ íĮĶë°±",
      "ĠìĿ¼ìĭŃì¹łë§ĮìĿ¼ì²ľì ľ¡ë°±",
      "ĠìĿ¼ìĭŃìĿ¼ë§Įìľ¡ ì²ľì¹łë°±",
      "ĠìĿ¼ìĭŃìĿ´ë§Įì ĺ¤ë°±",
      "ĠìĿ¼ìĭŃìĿ¼ë§Įì Ĥ¬",
      "ĠìĿ¼ìĭŃë§Įìĺ¤ ì²ľìĿ¼ë°±",
      "ĠìĿ¼ìĭŃë§Įìĺ¤ ì²ľìĺ¤ë°±",
      "ĠìĿ¼ìĭŃë§ĮìĤ¬ ì²ľêµ¬ë°±",
      "ĠìĿ¼ìĭŃìĿ¼ë§Įìľ¡ ì²ľìĤ¬ë°±",
      "ĠìĿ¼ìĭŃìĿ´ë§Įì¹ł ì²ľêµ¬ë°±",
      "ĠìĿ¼ìĭŃìĿ´ë§Į ìĿ¼ì²ľì",
      "ĠìĿ¼ìĭŃìĿ¼ë§Įìľ¡ ì²ľìĿ¼ë°±",
      "ĠìĿ¼ìĭŃìĿ´ë§Įì Ĥ¼ë°±",
      "ĠìĿ¼ìĭŃì¹łë§ĮìĿ´ ì²ľìĿ¼ë°±",
      "ĠìĿ¼ìĭŃìĿ´ë§Įì¹ł ì²ľíĮĶë°±",
      "ĠìĿ¼ìĭŃìĿ´ë§Įì ¹łë°±",
      "ĠìĿ¼ìĭŃìĤ¬ë§Į ìĿ¼ë°±",
      "ĠìĿ¼ìĭŃìĿ´ë§Į ìĿ´ë°±",
      "ĠìĿ¼ìĭŃìĿ´ë§Įì Ĥ¬ë°±",
      "ĠìĿ¼ìĭŃìĿ´ë§Į ìĿ¼ë°±",
      "ĠìĿ¼ìĭŃìĤ¼ë§Į êµ¬ë°±",
      "ĠìĿ¼ìĭŃìĿ´ë§Įêµ¬ ì²ľìĤ¼ë°±",
      "ĠìĿ¼ìĭŃìĿ´ë§ĮìĤ¬ ì²ľì¹łë°±",
      "ĠìĿ¼ìĭŃìĤ¼ë§ĮìĿ¼ì²ľì ¹łë°±",
      "ĠìĿ¼ìĭŃìĿ¼ë§ĮíĮĶ ì²ľì¹łë°±",
      "ĠìĿ¼ìĭŃë§Įìĺ¤ ì²ľìĤ¬ë°±",
      "ĠìĿ¼ìĭŃìĿ´ë§ĮìĤ¬ ì²ľìĺ¤ë°±",
      "ĠìĿ¼ìĭŃìĤ¼ë§ĮìĿ¼ì²ľ êµ¬ë°±",
      "ĠìĿ¼ìĭŃë§ĮìĤ¬ ì²ľì¹łë°±",
      "ĠìĿ¼ìĭŃìĤ¼ë§Įì ¹łë°±",
      "ĠìĿ¼ìĭŃìĿ´ë§ĮìĿ¼ì²ľ êµ¬ë°±",
      "ĠìĿ¼ìĭŃìĤ¼ë§ĮìĿ´ ì²ľìĿ´ë°±",
      "ĠìĿ¼ìĭŃì¹łë§ĮìĿ´ ì²ľíĮĶë°±",
      "ĠìĿ¼ìĭŃìĤ¼ë§ĮìĿ´ ì²ľìĤ¬ë°±",
      "ĠìĿ¼ìĭŃìĿ¼ë§Įêµ¬ ì²ľ",
      "ĠìĿ¼ìĭŃìĿ¼ë§Įìľ¡ ì²ľìĺ¤ë°±",
      "ĠìĿ¼ìĭŃë§Įêµ¬ ì²ľìĤ¼ë°±",
      "ĠìĿ¼ìĭŃìĿ¼ë§Įêµ¬ ì²ľì¹łë°±",
      "ĠìĿ¼ìĭŃìĤ¼ë§Įì Ĥ¼ë°±",
      "ĠìĿ¼ìĭŃìĿ´ë§ĮíĮĶ ì²ľìĿ´ë°±",
      "ĠìĿ¼ìĭŃë§Įìľ¡ ì²ľìĿ´ë°±",
      "ĠìĿ¼ìĭŃìĤ¼ë§ĮìĿ´ ì²ľêµ¬ë°±",
      "ĠìĿ¼ìĭŃë§ĮíĮĶ ì²ľìĿ¼ë°±",
      "ĠìĿ¼ìĭŃë§Įìľ¡ ì²ľìĤ¼ë°±",
      "ĠìĿ¼ìĭŃìĿ¼ë§ĮíĮĶ ì²ľíĮĶë°±",
      "ĠìĿ¼ìĭŃë§Įìĺ¤ ì²ľ",
      "ĠìĿ¼ìĭŃìĿ¼ë§Įìľ¡ ì²ľìľ¡ë°±",
      "ĠìĿ¼ìĭŃìĿ¼ë§Įêµ¬ ì²ľìľ¡ë°±",
      "ĠìĿ¼ìĭŃìĤ¼ë§Įì Ĥ¬ë°±",
      "ĠìĿ¼ìĭŃìĤ¼ë§ĮìĤ¼ ì²ľ",
      "ĠìĿ¼ìĭŃìĿ´ë§ĮíĮĶ ì²ľ",
      "ĠìĿ¼ìĭŃìĤ¼ë§Į ìĿ¼ë°±",
      "ĠìĿ¼ìĭŃìĤ¼ë§Į ìĿ´ë°±",
      "ĠìĿ¼ìĭŃìĿ¼ë§ĮíĮĶ ì²ľêµ¬ë°±",
      "ĠìĿ¼ìĭŃìĿ´ë§ĮìĤ¬ ì²ľìľ¡ë°±",
      "ĠìĿ¼ìĭŃë§Įêµ¬ ì²ľìĿ´ë°±",
      "ĠìĿ¼ìĭŃìĿ´ë§Įì¹ł ì²ľìľ¡ë°±",
      "ĠìĿ¼ìĭŃìĤ¼ë§ĮìĿ´ ì²ľíĮĶë°±",
      "ĠìĿ¼ìĭŃë§Įêµ¬ ì²ľìĿ¼ë°±",
      "ĠìĿ¼ìĭŃìĿ¼ë§Įìĺ¤ ì²ľíĮĶë°±",
      "ĠìĿ¼ìĭŃìĿ´ë§Įì¹ł ì²ľìĿ¼ë°±",
      "ĠìĿ¼ìĭŃìĿ¼ë§Įìľ¡ ì²ľ",
      "ĠìĿ¼ìĭŃìĿ¼ë§Įìĺ¤ ì²ľêµ¬ë°±",
      "ĠìĿ¼ìĭŃìĤ¼ë§Į íĮĶë°±",
      "ĠìĿ¼ìĭŃìĿ´ë§ĮìĤ¬ ì²ľíĮĶë°±",
      "ĠìĿ¼ìĭŃìĤ¼ë§ĮìĿ´ ì²ľ",
      "ĠìĿ¼ìĭŃë§Įìĺ¤ ì²ľìľ¡ë°±",
      "ĠìĿ¼ìĭŃìĤ¼ë§Įì ľ¡ë°±",
      "ĠìĿ¼ìĭŃìĿ¼ë§ĮíĮĶ ì²ľìľ¡ë°±",
      "ĠìĿ¼ìĭŃìĤ¼ë§ĮìĤ¼ ì²ľìĤ¬ë°±",
      "ĠìĿ¼ìĭŃìĤ¼ë§ĮìĿ´ ì²ľìľ¡ë°±",
      "ĠìĿ¼ìĭŃìĤ¼ë§ĮìĿ´ ì²ľìĤ¼ë°±",
      "ĠìĿ¼ìĭŃìĿ´ë§Įì¹ł ì²ľìĺ¤ë°±",
      "ĠìĿ¼ìĭŃìĿ´ë§ĮìĤ¬ ì²ľìĤ¬ë°±",
      "ĠìĿ¼ìĭŃìĿ¼ë§Įêµ¬ ì²ľìĺ¤ë°±",
      "ĠìĿ¼ìĭŃìĿ¼ë§Į ìĿ¼ì²ľ",
      "ĠìĿ¼ìĭŃë§Įìĺ¤ ì²ľì¹łë°±",
      "ĠìĿ¼ìĭŃì¹łë§ĮìĿ´ ì²ľìĤ¬ë°±",
      "ĠìĿ¼ìĭŃë§Įêµ¬ ì²ľìĤ¬ë°±",
      "ĠìĿ¼ìĭŃìĤ¼ë§ĮìĿ¼ì²ľì ľ¡ë°±",
      "ĠìĿ¼ìĭŃìĿ´ë§Įì¹ł ì²ľìĿ´ë°±",
      "ĠìĿ¼ìĭŃìĤ¼ë§ĮìĤ¼ ì²ľìĿ´ë°±",
      "ĠìĿ¼ìĭŃìĿ´ë§Įêµ¬ ì²ľìĺ¤ë°±",
      "ĠìĿ¼ìĭŃìĿ´ë§Įêµ¬ ì²ľíĮĶë°±",
      "ĠìĿ¼ìĭŃìĤ¼ë§ĮìĿ´ ì²ľìĺ¤ë°±",
      "ĠìĿ¼ìĭŃìĿ´ë§Įìĺ¤ ì²ľ",
      "ĠìĿ¼ìĭŃìĤ¼ë§ĮìĿ´ ì²ľìĿ¼ë°±",
      "ĠìĿ¼ìĭŃë§ĮìĤ¼ ì²ľì¹łë°±",
      "ĠìĿ¼ìĭŃìĿ´ë§Įìĺ¤ ì²ľìĿ¼ë°±",
      "ĠìĿ¼ìĭŃìĿ´ë§ĮìĤ¬ ì²ľêµ¬ë°±",
      "ĠìĿ¼ìĭŃìĿ¼ë§Įêµ¬ ì²ľìĤ¼ë°±",
      "ĠìĿ¼ìĭŃìĿ¼ë§Įìĺ¤ ì²ľ",
      "ĠìĿ¼ìĭŃìĤ¼ë§ĮìĿ¼ì²ľì Ĥ¬ë°±",
      "ĠìĿ¼ìĭŃìĿ´ë§ĮìĿ´ ì²ľìĿ´ë°±",
      "ĠìĿ¼ìĭŃìĿ´ë§Įêµ¬ ì²ľìľ¡ë°±",
      "ĠìĿ¼ìĭŃìĤ¼ë§ĮìĤ¼ ì²ľìĤ¼ë°±",
      "ĠìĿ¼ìĭŃìĿ´ë§ĮìĿ´ ì²ľ",
      "ĠìĿ¼ìĭŃë§ĮìĤ¼ ì²ľêµ¬ë°±",
      "ĠìĿ¼ìĭŃìĿ´ë§Įìĺ¤ ì²ľìĤ¼ë°±",
      "ĠìĿ¼ìĭŃìĿ´ë§Įì¹ł ì²ľ",
      "ĠìĿ¼ìĭŃìĿ´ë§Į êµ¬ë°±",
      "ĠìĿ¼ìĭŃìĿ¼ë§Įêµ¬ ì²ľíĮĶë°±",
      "ĠìĿ¼ìĭŃë§Įìĺ¤ ì²ľíĮĶë°±",
      "ĠìĿ¼ìĭŃìĿ´ë§Įêµ¬ ì²ľìĤ¬ë°±",
      "ĠìĿ¼ìĭŃì¹łë§ĮìĿ´ ì²ľì¹łë°±",
      "ĠìĿ¼ìĭŃìĿ´ë§Įêµ¬ ì²ľì¹łë°±",
      "ĠìĿ¼ìĭŃìĿ¼ë§Įêµ¬ ì²ľìĤ¬ë°±",
      "ĠìĿ¼ìĭŃìĿ¼ë§Į ìĿ¼ì²ľì",
      "ĠìĿ¼ìĭŃë§ĮìĤ¼ ì²ľìľ¡ë°±",
      "ĠìĿ¼ìĭŃìĿ´ë§Į íĮĶë°±",
      "ĠìĿ¼ìĭŃë§ĮìĤ¬ ì²ľìľ¡ë°±",
      "ĠìĿ¼ìĭŃì¹łë§ĮìĿ´ ì²ľìĺ¤ë°±",
      "ĠìĿ¼ìĭŃìĿ¼ë§Įìĺ¤ ì²ľìĺ¤ë°±",
      "ĠìĿ¼ìĭŃìĿ´ë§Įìĺ¤ ì²ľìĿ´ë°±",
      "ĠìĿ¼ìĭŃìĤ¼ë§ĮìĤ¼ ì²ľìĿ¼ë°±",
      "ĠìĿ¼ìĭŃë§ĮìĤ¬ ì²ľ",
      "ĠìĿ¼ìĭŃìĤ¼ë§ĮìĿ¼ì²ľ ìĿ¼ë°±",
      "ĠìĿ¼ìĭŃìĿ¼ë§Įìĺ¤ ì²ľìĤ¬ë°±",
      "ĠìĿ¼ìĭŃìĿ´ë§ĮìĤ¼ ì²ľìĿ¼ë°±",
      "ĠìĿ¼ìĭŃìĿ´ë§ĮìĿ¼ì²ľ íĮĶë°±",
      "ĠìĿ¼ìĭŃìĿ´ë§ĮìĿ´ ì²ľìĿ¼ë°±",
      "ĠìĿ¼ìĭŃë§Įìľ¡ ì²ľìĿ¼ë°±",
      "ĠìĿ¼ìĭŃìĿ´ë§ĮìĤ¬ ì²ľìĿ¼ë°±",
      "ĠìĿ¼ìĭŃìĿ¼ë§Įêµ¬ ì²ľêµ¬ë°±",
      "ĠìĿ¼ìĭŃìĿ¼ë§Įêµ¬ ì²ľìĿ´ë°±",
      "ĠìĿ¼ìĭŃìĤ¼ë§ĮìĿ´ ì²ľì¹łë°±",
      "ĠìĿ¼ìĭŃë§Įêµ¬ ì²ľìĺ¤ë°±",
      "ĠìĿ¼ìĭŃìĿ¼ë§Į ìĿ´",
      "ĠìĿ¼ìĭŃìĿ´ë§Įêµ¬ ì²ľìĿ´ë°±",
      "ĠìĿ¼ìĭŃìĤ¼ë§ĮìĿ¼ì²ľì Ĥ¼ë°±",
      "ĠìĿ¼ìĭŃìĿ´ë§ĮìĿ´ ì²ľìĤ¼ë°±",
      "ĠìĿ¼ìĭŃìĿ´ë§ĮìĤ¼ ì²ľìĿ´ë°±",
      "ĠìĿ¼ìĭŃìĿ´ë§Įì¹ł ì²ľìĤ¼ë°±",
      "ĠìĿ¼ìĭŃìĿ´ë§ĮìĤ¬ ì²ľ",
      "ĠìĿ¼ìĭŃë§Įìĺ¤ ì²ľêµ¬ë°±",
      "ĠìĿ¼ìĭŃìĿ¼ë§Įêµ¬ ì²ľìĿ¼ë°±",
      "ĠìĿ¼ìĭŃì¹łë§ĮìĿ´ ì²ľìĤ¼ë°±",
      "ĠìĿ¼ìĭŃìĿ´ë§Įì¹ł ì²ľìĤ¬ë°±",
      "ĠìĿ¼ìĭŃìĿ¼ë§ĮìĤ¬ ì²ľêµ¬ë°±",
      "ĠìĿ¼ìĭŃìĿ´ë§ĮìĿ¼ì²ľì ¹łë°±",
      "ĠìĿ¼ìĭŃë§ĮìĤ¬ ì²ľìĤ¼ë°±",
      "ĠìĿ¼ìĭŃìĿ¼ë§Įìĺ¤ ì²ľìĿ¼ë°±",
      "ĠìĿ¼ìĭŃë§ĮìĤ¬ ì²ľìĿ´ë°±",
      "ĠìĿ¼ìĭŃë§ĮìĤ¬ ì²ľìĿ¼ë°±",
      "ĠìĿ¼ìĭŃìĿ´ë§ĮìĤ¼ ì²ľêµ¬ë°±",
      "ĠìĿ¼ìĭŃìĿ¼ë§Įìĺ¤ ì²ľìľ¡ë°±",
      "ĠìĿ¼ìĭŃìĿ´ë§ĮìĤ¼ ì²ľíĮĶë°±",
      "ĠìĿ¼ìĭŃë§ĮìĤ¬ ì²ľìĤ¬ë°±",
      "Ĥ¼ ì²ľ",
      "ĠìĿ¼ìĭŃì¹łë§Įì Ĥ¼ì²ľ",
      "ĠìĿ¼ìĭŃìĤ¼ë§ĮìĿ¼ì²ľ ìĿ´ë°±",
      "ĠìĿ¼ìĭŃìĿ´ë§ĮìĤ¼ ì²ľìĺ¤ë°±",
      "ĠìĿ¼ìĭŃìĿ´ë§ĮìĿ´ ì²ľíĮĶë°±",
      "ĠìĿ¼ìĭŃìĿ´ë§Įìĺ¤ ì²ľìĤ¬ë°±",
      "ĠìĿ¼ìĭŃìĿ´ë§ĮìĤ¼ ì²ľìĤ¬ë°±",
      "ĠìĿ¼ìĭŃìĿ´ë§ĮìĤ¼ ì²ľìĤ¼ë°±",
      "ĠìĿ¼ìĭŃë§Įìľ¡ ì²ľ",
      "ĠìĿ¼ìĭŃìĿ´ë§Įìľ¡ ì²ľ",
      "ĠìĿ¼ìĭŃë§ĮìĤ¬ ì²ľìĺ¤ë°±",
      "ĠìĿ¼ìĭŃìĿ´ë§ĮìĤ¬ ì²ľìĿ´ë°±",
      "ĠìĿ¼ìĭŃìĿ´ë§ĮìĤ¬ ì²ľìĤ¼ë°±",
      "ĠìĿ¼ìĭŃìĿ¼ë§Įìĺ¤ ì²ľì¹łë°±",
      "ĠìĿ¼ìĭŃìĿ¼ë§ĮìĿ¼ì²ľì ĺ¤ë°±",
      "ĠìĿ¼ìĭŃìĿ´ë§Įìĺ¤ ì²ľìĺ¤ë°±",
      "ĠìĿ¼ìĭŃë§ĮìĤ¼ ì²ľìĺ¤ë°±",
      "ĠìĿ¼ìĭŃìĿ¼ë§ĮìĤ¬ ì²ľíĮĶë°±",
      "ĠìĿ¼ìĭŃë§ĮìĤ¼ ì²ľíĮĶë°±",
      "ĠìĿ¼ìĭŃìĿ´ë§ĮìĿ´ ì²ľìĤ¬ë°±",
      "ĠìĿ¼ìĭŃìĿ¼ë§Įì Ĥ¼ë°±",
      "ĠìĿ¼ìĭŃìĿ¼ë§Į íĮĶë°±",
      "ĠìĿ¼ìĭŃìĿ´ë§Įìľ¡ ì²ľêµ¬ë°±",
      "ĠìĿ¼ìĭŃìĿ¼ë§ĮìĿ¼ì²ľ ìĿ¼ë°±",
      "ĠìĿ¼ìĭŃìĿ´ë§Įìĺ¤ ì²ľíĮĶë°±",
      "ĠìĿ¼ìĭŃìĤ¼ë§ĮìĿ¼ì²ľì ĺ¤ë°±",
      "ĠìĿ¼ìĭŃì¹łë§ĮìĿ´ ì²ľêµ¬ë°±",
      "ĠìĿ¼ìĭŃìĿ¼ë§ĮìĿ¼ì²ľì Ĥ¬ë°±",
      "ĠìĿ¼ìĭŃìĿ´ë§ĮìĿ¼ì²ľì Ĥ¬ë°±",
      "ĠìĿ¼ìĭŃìĿ´ë§ĮìĿ¼ì²ľì ľ¡ë°±",
      "ĠìĿ¼ìĭŃìĿ¼ë§Įìĺ¤ ì²ľìĿ´ë°±",
      "ĠìĿ¼ìĭŃìĿ¼ë§ĮìĤ¬ ì²ľì¹łë°±",
      "ĠìĿ¼ìĭŃìĿ´ë§ĮìĿ´ ì²ľêµ¬ë°±",
      "ĠìĿ¼ìĭŃìĿ´ë§ĮìĿ¼ì²ľì Ĥ¼ë°±",
      "ĠìĿ¼ìĭŃìĿ´ë§Įìĺ¤ ì²ľêµ¬ë°±",
      "ĠìĿ¼ìĭŃìĿ´ë§Įìľ¡ ì²ľìĤ¬ë°±",
      "ĠìĿ¼ìĭŃìĿ´ë§ĮìĿ¼ì²ľ ìĿ´ë°±",
      "ĠìĿ¼ìĭŃìĿ´ë§Įìĺ¤ ì²ľì¹łë°±",
      "ĠìĿ¼ìĭŃìĿ¼ë§Įìĺ¤ ì²ľìĤ¼ë°±",
      "ĠìĿ¼ìĭŃìĿ¼ë§Įì ľ¡ë°±",
      "ĠìĿ¼ìĭŃë§Įêµ¬ ì²ľìľ¡ë°±",
      "ĠìĿ¼ìĭŃìĿ´ë§Įìľ¡ ì²ľìĤ¼ë°±",
      "ĠìĿ¼ìĭŃìĿ¼ë§ĮìĿ¼ì²ľ ìĿ´ë°±",
      "ĠìĿ¼ìĭŃìĿ´ë§ĮìĤ¼ ì²ľìľ¡ë°±",
      "ĠìĿ¼ìĭŃìĿ´ë§ĮìĤ¼ ì²ľì¹łë°±",
      "ĠìĿ¼ìĭŃìĿ´ë§Įìľ¡ ì²ľìĿ¼ë°±",
      "ĠìĿ¼ìĭŃìĿ´ë§ĮìĿ¼ì²ľì ĺ¤ë°±",
      "ĠìĿ¼ìĭŃìĿ¼ë§ĮìĿ´ ì²ľìĿ´ë°±",
      "ĠìĿ¼ìĭŃìĿ´ë§ĮìĿ´ ì²ľì¹łë°±",
      "ĠìĿ¼ìĭŃìĿ¼ë§ĮìĤ¬ ì²ľìĤ¼ë°±",
      "ĠìĿ¼ìĭŃìĿ¼ë§Į êµ¬ë°±",
      "ĠìĿ¼ìĭŃë§Įêµ¬ ì²ľêµ¬ë°±",
      "ĠìĿ¼ìĭŃì¹łë§ĮìĿ´ ì²ľìľ¡ë°±",
      "ĠìĿ¼ìĭŃìĿ´ë§Įìĺ¤ ì²ľìľ¡ë°±",
      "ĠìĿ¼ìĭŃìĿ´ë§ĮìĿ¼ì²ľ ìĿ¼ë°±",
      "ĠìĿ¼ìĭŃìĿ¼ë§ĮìĿ´ ì²ľìĤ¼ë°±",
      "ĠìĿ¼ìĭŃìĿ¼ë§ĮìĤ¬ ì²ľ",
      "ĠìĿ¼ìĭŃë§Įêµ¬ ì²ľíĮĶë°±",
      "ĠìĿ¼ìĭŃìĿ´ë§Įìľ¡ ì²ľìĿ´ë°±",
      "ĠìĿ¼ìĭŃìĿ¼ë§ĮìĿ´ ì²ľìĤ¬ë°±",
      "ĠìĿ¼ìĭŃìĿ´ë§ĮìĿ´ ì²ľìĺ¤ë°±",
      "ĠìĿ¼ìĭŃìĿ¼ë§Įì Ĥ¼",
      "ĠìĿ¼ìĭŃìĿ¼ë§Įì ¹łë°±",
      "ĠìĿ¼ìĭŃìĿ¼ë§Į ìĿ¼ë°±",
      "ĠìĿ¼ìĭŃë§Įêµ¬ ì²ľì¹łë°±",
      "ĠìĿ¼ìĭŃìĿ´ë§Įìľ¡ ì²ľìĺ¤ë°±",
      "ĠìĿ¼ìĭŃìĿ´ë§Įìľ¡ ì²ľìľ¡ë°±",
      "ĠìĿ¼ìĭŃìĿ´ë§Įìľ¡ ì²ľì¹łë°±",
      "ĠìĿ¼ìĭŃìĿ´ë§ĮìĿ´ ì²ľìľ¡ë°±",
      "ĠìĿ¼ìĭŃìĿ¼ë§ĮìĿ¼ì²ľì ¹łë°±",
      "ĠìĿ¼ìĭŃìĿ´ë§Įìľ¡ ì²ľíĮĶë°±",
      "ĠìĿ¼ìĭŃìĿ´ë§ĮìĤ¼ ì²ľ",
      "ĠìĿ¼ìĭŃìĿ¼ë§ĮìĿ´ ì²ľêµ¬ë°±",
      "ĠìĿ¼ìĭŃìĿ¼ë§ĮìĿ´ ì²ľìľ¡ë°±",
      "ĠìĿ¼ìĭŃìĿ¼ë§Įì Ĥ¬ë°±",
      "ĠìĿ¼ìĭŃìĿ¼ë§Įì ĺ¤ë°±",
      "ĠìĿ¼ìĭŃìĿ¼ë§Į ìĿ´ë°±",
      "ĠìĿ¼ìĭŃìĿ¼ë§ĮìĿ¼ì²ľì Ĥ¼ë°±",
      "ĠìĿ¼ìĭŃë§ĮìĤ¼ ì²ľìĤ¬ë°±",
      "ĠìĿ¼ìĭŃìĿ¼ë§ĮìĤ¬ ì²ľìľ¡ë°±",
      "ĠìĿ¼ìĭŃìĿ¼ë§ĮìĿ¼ì²ľì ľ¡ë°±",
      "ĠìĿ¼ìĭŃìĿ¼ë§ĮìĿ´ ì²ľìĿ¼ë°±",
      "ĠìĿ¼ìĭŃìĿ¼ë§ĮìĤ¬ ì²ľìĿ´ë°±",
      "ĠìĿ¼ìĭŃìĿ¼ë§ĮìĿ´ ì²ľìĺ¤ë°±",
      "ĠìĿ¼ìĭŃìĿ¼ë§ĮìĤ¼ ì²ľêµ¬ë°±",
      "ĠìĿ¼ìĭŃìĿ¼ë§ĮìĤ¼ ì²ľíĮĶë°±",
      "ĠìĿ¼ìĭŃìĿ¼ë§ĮìĤ¬ ì²ľìĿ¼ë°±",
      "ĠìĿ¼ìĭŃìĿ¼ë§ĮìĤ¼ ì²ľìĤ¼ë°±"
    ]
  }
}